/**
  ******************************************************************************
  * @file    network_ecblobs.h
  * @brief   NN Code autogenerated DO NOT MODIFY IT
  ******************************************************************************
  * @attention
  *
  * Copyright (c) 2024 STMicroelectronics.
  * All rights reserved.
  *
  * This software is licensed under terms that can be found in the LICENSE file
  * in the root directory of this software component.
  * If no LICENSE file comes with this software, it is provided AS-IS.
  *
  ******************************************************************************
  */


#ifdef __cplusplus
extern "C" {
#endif

#include "ll_aton_caches_interface.h"

#include <string.h>

#if !defined(ECBLOB_CONST_SECTION)
#define ECBLOB_CONST_SECTION /* Empty */
#endif
#if !defined(ECBLOB_RUNTIME_SECTION)
#define ECBLOB_RUNTIME_SECTION /* Empty */
#endif

ECBLOB_CONST_SECTION
// aligned to the cache line size (equal to 64 bytes)
__attribute__((aligned(64)))
static const uint64_t _ec_blob_network_1[11184] =
{
  0x0000575bca057a7aUL, 0x0000005d0000003dUL, 0x5c00004200802241UL, 0x1500006008000000UL,
  0x000700005c027c00UL, 0x000040005c070043UL, 0x5c0c00430000ffe0UL, 0x1041204200000000UL,
  0x6000004200802261UL, 0x1500000008000000UL, 0x0007000060027c00UL, 0x0000400060070043UL,
  0x600c004300000020UL, 0x1041104100000000UL, 0x24007c0000802081UL, 0x2402004300080104UL,
  0x0004b000342e0000UL, 0x00000000240500c3UL, 0x000000000004b000UL, 0x0000002400000000UL,
  0x240c004200100000UL, 0x0000000700000006UL, 0x00000001240d0043UL, 0x241100433432b03fUL,
  0x0000000000000000UL, 0x38007c0000802121UL, 0x380200430008010cUL, 0x0004b00034270000UL,
  0x00000000380500c3UL, 0x000000000004b000UL, 0x0000002400000000UL, 0x380c004200100000UL,
  0x0000000700000006UL, 0x00000001380d0043UL, 0x38110043342bb03fUL, 0x0000000000000000UL,
  0x00000027100b7c00UL, 0x00000009101e7c00UL, 0x0000002510207c00UL, 0x0000000110007c00UL,
  0x5c00200138002001UL, 0x2400200160002001UL, 0x0000006438007fe4UL, 0x10007c0000000000UL,
  0x1000042400000002UL, 0x0000000000000064UL, 0x4000000010007c00UL, 0x0000006410007bc4UL,
  0x100b7c0000000000UL, 0x101e7c0000000000UL, 0x10207c0000000000UL, 0x38007c0000000000UL,
  0x3800042400000002UL, 0x0000000000000064UL, 0x4000000038007c00UL, 0x0000006438007bc4UL,
  0x0080012100000000UL, 0x080000025c007c00UL, 0x000000645c000424UL, 0x5c007c0000000000UL,
  0x5c007bc448000000UL, 0x0000000000000064UL, 0x60007c0000800241UL, 0x6000042408000002UL,
  0x0000000000000064UL, 0x4800000060007c00UL, 0x0000006460007bc4UL, 0x0080026100000000UL,
  0x0000000224007c00UL, 0x0000006424000424UL, 0x24007c0000000000UL, 0x24007bc440000000UL,
  0x0000000000000064UL, 0x0000007d00800081UL, 0x3c007c0000802141UL, 0x3c0200e300100034UL,
  0x0000221108030303UL, 0x014003c010634101UL, 0x013f000003bf0000UL, 0x3c0a7c0000000001UL,
  0x3c0d7c0000000000UL, 0x0080228100000000UL, 0x0800000064000042UL, 0x64020123156000fcUL,
  0x00000000000b0000UL, 0x00031fff00000007UL, 0x0000459d00063fffUL, 0x07c403f900000000UL,
  0x640c004300000001UL, 0x2042204200000000UL, 0x00000001640b7c00UL, 0x0298459d65000403UL,
  0x0086459d0000574cUL, 0x023e459d0000143eUL, 0x027a459d0000324aUL, 0x04ad459d00009094UL,
  0x01e5459d00000cdfUL, 0x033c459d0000695dUL, 0x0474459d0000fe7eUL, 0x0252459d0000e59cUL,
  0x0279459d000051b9UL, 0x040a459d000011b3UL, 0x02a5459d00002a2aUL, 0x0206459d00008791UL,
  0x0358459d0000dbdfUL, 0xf22d459d00000d12UL, 0x02af459d000021abUL, 0x0080220100009748UL,
  0x0174104c54007c00UL, 0x00087f8054020043UL, 0x550002030210220fUL, 0x0000000100000000UL,
  0x0000000300000002UL, 0x0000000500000004UL, 0x000000c700000006UL, 0x000000d10000004fUL,
  0x000000da00000019UL, 0x000000e300000022UL, 0x0000002c0000002bUL, 0x0000000056000b43UL,
  0x000000000000c100UL, 0x000000000000c100UL, 0x000000000000c100UL, 0x000000000000c100UL,
  0x000000000000c100UL, 0x000000000000c100UL, 0x000000000000c100UL, 0xe00000000000c100UL,
  0x000000000000ba00UL, 0x000000000000c080UL, 0xe00000000000c080UL, 0x000000000000bc80UL,
  0x000000000000c000UL, 0x000000000000c000UL, 0x10000ccd0000c000UL, 0x480000000000bfdaUL,
  0x400000000000bbd0UL, 0x400000000000be00UL, 0x400000000000be00UL, 0x400000000000be00UL,
  0x400000000000be00UL, 0x400000000000be80UL, 0x400000000000be80UL, 0x400000000000be80UL,
  0x400000000000be80UL, 0x400000000000be80UL, 0x400000000000be80UL, 0x400000000000be80UL,
  0x400000000000be80UL, 0x600000000000be80UL, 0x400000000000a280UL, 0x400000000000bf00UL,
  0x400000000000bf00UL, 0x400000000000bf00UL, 0x400000000000bf00UL, 0x400000000000bf00UL,
  0x400000000000bf00UL, 0x400000000000bf00UL, 0x400000000000bf00UL, 0x400000000000bf00UL,
  0x600000000000bf00UL, 0x4000000000009100UL, 0x400000000000bf80UL, 0x400000000000bf80UL,
  0x008021210000bf80UL, 0x0008010038007c00UL, 0x3427000038020043UL, 0x380500c30004b000UL,
  0x0004b00000000000UL, 0x0000000000000001UL, 0x0010000000000024UL, 0x00000006380c0042UL,
  0x380d004300000007UL, 0x342bb03f00000002UL, 0x0000000038110043UL, 0x0080206100000000UL,
  0x0008018420007c00UL, 0x71f5a9b020020043UL, 0x200500c3000001b0UL, 0x0000000000000000UL,
  0x0000000000000000UL, 0x0010000000000024UL, 0x00000006200c0042UL, 0x200d004300000007UL,
  0x71f5ab9f00000001UL, 0x0000000020110043UL, 0x0080208100000008UL, 0x0008000824007c00UL,
  0x342e000024020123UL, 0x0010000800a000a0UL, 0x0000000800000a00UL, 0x0006400000000002UL,
  0x0010000000000024UL, 0x00000006240c0042UL, 0x240d004300000007UL, 0x3434403f00000002UL,
  0x0000000024110043UL, 0x10067c0000000000UL, 0x100c004300000021UL, 0x0000000700000013UL,
  0x00000029101c7c00UL, 0x0000001510227c00UL, 0x0000000110007c00UL, 0x3c007c0024002001UL,
  0x5400200100100035UL, 0x2000200164002001UL, 0x24007fe438002001UL, 0x0000000000000064UL,
  0x0000000210007c00UL, 0x0000006410000424UL, 0x10007c0000000000UL, 0x10007bc440000000UL,
  0x0000000000000064UL, 0x0000000010067c00UL, 0x00000000100c0043UL, 0x101c7c0000000000UL,
  0x10227c0000000000UL, 0x24007c0000000000UL, 0x2400042400000002UL, 0x0000000000000064UL,
  0x4000000024007c00UL, 0x0000006424007bc4UL, 0x0080008100000000UL, 0x000000023c007c00UL,
  0x000000643c000424UL, 0x3c007c0000000000UL, 0x3c007bc440000000UL, 0x0000000000000064UL,
  0x54007c0000800141UL, 0x5400042400881082UL, 0x0000000000000064UL, 0x4088108054007c00UL,
  0x0000006454007bc4UL, 0x0080020100000000UL, 0x0800000264007c00UL, 0x0000006464000424UL,
  0x64007c0000000000UL, 0x64007bc448000000UL, 0x0000000000000064UL, 0x20007c0000800281UL,
  0x2000042400000002UL, 0x0000000000000064UL, 0x4000000020007c00UL, 0x0000006420007bc4UL,
  0x0080006100000000UL, 0x0000000238007c00UL, 0x0000006438000424UL, 0x38007c0000000000UL,
  0x38007bc440000000UL, 0x0000000000000064UL, 0x0000009d00800121UL, 0x40007c0000802161UL,
  0x400200e300000054UL, 0x0000221104040303UL, 0x00a0028010b74001UL, 0x009f0000027f0000UL,
  0x400a7c0000030010UL, 0x400c004300000000UL, 0x0000000000ffff82UL, 0x44007c0000802181UL,
  0x440200e300000040UL, 0x0000221104040303UL, 0x00a0028010b74000UL, 0x009f0000027f0000UL,
  0x440a7c0000070410UL, 0x440c004300000000UL, 0x0000000000ffff82UL, 0x48007c00008021a1UL,
  0x480200e300000040UL, 0x0000221104040303UL, 0x00a0028010b74000UL, 0x009f0000027f0000UL,
  0x480a7c00000b0810UL, 0x480c004300000000UL, 0x0000000000ffff82UL, 0x3c007c0000802141UL,
  0x3c0200e300000040UL, 0x0000221104040303UL, 0x00a0028010a34100UL, 0x009f0000027f0000UL,
  0x3c0a7c00000f0c10UL, 0x3c0c004300000000UL, 0x0000000000ffff82UL, 0x68000042008022a1UL,
  0x156000fc08000000UL, 0x000a800068020123UL, 0x0000000300000000UL, 0x00031fff000063ffUL,
  0x000000000000409cUL, 0x00000001078403fdUL, 0x00000000680c0043UL, 0x680b7c0020422042UL,
  0x6900080300000001UL, 0x000089af0030409cUL, 0x000068dfff76409cUL, 0x000034f10035409cUL,
  0x00009408ff95409cUL, 0x000009fdffe1409cUL, 0x0000ebaaffb9409cUL, 0x0000f20dff6c409cUL,
  0x0000599cff7d409cUL, 0x0000023bffb6409cUL, 0x0000dc9aff8b409cUL, 0x0000f72cffcb409cUL,
  0x000057c9fedd409cUL, 0x00003407ffe5409cUL, 0x00004beaffc7409cUL, 0x0000f5dbffe5409cUL,
  0x0000931eff45409cUL, 0x00008c11ff9f409cUL, 0x0000188bff55409cUL, 0x00007e2c001e409cUL,
  0x00000435ff8f409cUL, 0x0000e490ff81409cUL, 0x00009566000d409cUL, 0x00000082003a409cUL,
  0x0000d352ffaf409cUL, 0x00002c04ff5d409cUL, 0x0000fe39ff71409cUL, 0x000045baffdf409cUL,
  0x00003393ffbd409cUL, 0x00007268ffaf409cUL, 0x00000954ffee409cUL, 0x0000354cff39409cUL,
  0x0000e33eff9b409cUL, 0x58007c0000802221UL, 0x580200430174104cUL, 0x0210220f00087f80UL,
  0x0000000059000203UL, 0x0000000200000001UL, 0x0000000400000003UL, 0x0000000600000005UL,
  0x0000000f000000c7UL, 0x00000058000000d0UL, 0x0000005c0000005aUL, 0x000000e6000000deUL,
  0x5a000d83000000eeUL, 0x0000c08000000000UL, 0x0000c08000000000UL, 0x0000c08000000000UL,
  0x0000c08000000000UL, 0x0000c08000000000UL, 0x0000c08000000000UL, 0x0000c08000000000UL,
  0x0000c08000000000UL, 0x0000c08000000000UL, 0x0000c08000000000UL, 0x0000c08000000000UL,
  0x0000bc80e0000000UL, 0x0000c00000000000UL, 0x0000c28020000000UL, 0x0000c40040000000UL,
  0x0000c40040000000UL, 0x0000c40040000000UL, 0x0000c40040000000UL, 0x0000c38040000000UL,
  0x0000c38040000000UL, 0x0000c38040000000UL, 0x0000c38040000000UL, 0x0000c38040000000UL,
  0x0000c38040000000UL, 0x0000d57505b002d8UL, 0x0000c30040000000UL, 0x0000e661eeef02d8UL,
  0x0000c28040000000UL, 0x0000fcfdd82e02d8UL, 0x0000c20040000000UL, 0x0000c20040000000UL,
  0x0000c18040000000UL, 0x0000c18040000000UL, 0x0000c18040000000UL, 0x0000c18040000000UL,
  0x0000c18040000000UL, 0x0000c18040000000UL, 0x0000c18040000000UL, 0x0000c18040000000UL,
  0x0000c10040000000UL, 0x0000c10040000000UL, 0x0000c10040000000UL, 0x0000c10040000000UL,
  0x0000c10040000000UL, 0x0000c10040000000UL, 0x0000c10040000000UL, 0x0000f90020000000UL,
  0x0000c08040000000UL, 0x0000c08040000000UL, 0x0000c08040000000UL, 0x0000c08040000000UL,
  0x0000c08040000000UL, 0x0000c08040000000UL, 0x0000c08040000000UL, 0x2c007c00008020c1UL,
  0x2c0201230008c000UL, 0x00a000a0342e0000UL, 0x00000a0000100004UL, 0x0000000100000010UL,
  0x0000002400000000UL, 0x2c0c004200100000UL, 0x0000000700000006UL, 0x000000082c0d0043UL,
  0x2c1100433434403fUL, 0x0000000000000000UL, 0x14007c0000802001UL, 0x140200430008c184UL,
  0x0000120071f506d0UL, 0x00000000140500c3UL, 0x0000000000000000UL, 0x0000002400000000UL,
  0x140c004200100000UL, 0x0000000700000006UL, 0x00000001140d0043UL, 0x1411004371f5190fUL,
  0x0000000800000000UL, 0x38007c0000802121UL, 0x380201230008c000UL, 0x00a000a0342e0004UL,
  0x00000a0000100004UL, 0x0000000100000010UL, 0x0000002400000000UL, 0x380c004200100000UL,
  0x0000000700000006UL, 0x00000008380d0043UL, 0x381100433434403fUL, 0x0000000000000000UL,
  0x1c007c0000802041UL, 0x1c0201230008c000UL, 0x00a000a0342e0008UL, 0x00000a0000100004UL,
  0x0000000100000010UL, 0x0000002400000000UL, 0x1c0c004200100000UL, 0x0000000700000006UL,
  0x000000081c0d0043UL, 0x1c1100433434403fUL, 0x0000000000000000UL, 0x20007c0000802061UL,
  0x200201230008c000UL, 0x00a000a0342e000cUL, 0x00000a0000100004UL, 0x0000000100000010UL,
  0x0000002400000000UL, 0x200c004200100000UL, 0x0000000700000006UL, 0x00000008200d0043UL,
  0x201100433434403fUL, 0x0000000000000000UL, 0x30007c00008020e1UL, 0x3002012300080008UL,
  0x0050005034270000UL, 0x00000a0000200004UL, 0x0000000800000004UL, 0x0000002400032000UL,
  0x300c004200100000UL, 0x0000000700000006UL, 0x00000008300d0043UL, 0x30110043342a203fUL,
  0x0000000000000000UL, 0x0000002310097c00UL, 0x00000007100c00a3UL, 0x0000001b00000001UL,
  0x000000010000000dUL, 0x00000013101200c3UL, 0x0000001700000001UL, 0x0000000100000005UL,
  0x101d7c0000000019UL, 0x10247c000000002bUL, 0x10007c0000000015UL, 0x3000200100000001UL,
  0x000000413c007c00UL, 0x0000005540007c00UL, 0x0000004144007c00UL, 0x0000004148007c00UL,
  0x6800200158002001UL, 0x1c00200114002001UL, 0x2c00200120002001UL, 0x30007fe438002001UL,
  0x0000000000000064UL, 0x0000000210007c00UL, 0x0000006410000424UL, 0x10007c0000000000UL,
  0x10007bc440000000UL, 0x0000000000000064UL, 0x0000000010097c00UL, 0x00000000100c00a3UL,
  0x0000000000000000UL, 0x0000000000000000UL, 0x00000000101200c3UL, 0x0000000000000000UL,
  0x0000000000000000UL, 0x101d7c0000000000UL, 0x10247c0000000000UL, 0x30007c0000000000UL,
  0x3000042400000002UL, 0x0000000000000064UL, 0x4000000030007c00UL, 0x0000006430007bc4UL,
  0x008000e100000000UL, 0x000000023c007c00UL, 0x000000643c000424UL, 0x3c007c0000000000UL,
  0x3c007bc440000000UL, 0x0000000000000064UL, 0x40007c0000800141UL, 0x4000042400000002UL,
  0x0000000000000064UL, 0x4000000040007c00UL, 0x0000006440007bc4UL, 0x0080016100000000UL,
  0x0000000244007c00UL, 0x0000006444000424UL, 0x44007c0000000000UL, 0x44007bc440000000UL,
  0x0000000000000064UL, 0x48007c0000800181UL, 0x4800042400000002UL, 0x0000000000000064UL,
  0x4000000048007c00UL, 0x0000006448007bc4UL, 0x008001a100000000UL, 0x0088108258007c00UL,
  0x0000006458000424UL, 0x58007c0000000000UL, 0x58007bc440881080UL, 0x0000000000000064UL,
  0x68007c0000800221UL, 0x6800042408000002UL, 0x0000000000000064UL, 0x4800000068007c00UL,
  0x0000006468007bc4UL, 0x008002a100000000UL, 0x0000000214007c00UL, 0x0000006414000424UL,
  0x14007c0000000000UL, 0x14007bc440000000UL, 0x0000000000000064UL, 0x1c007c0000800001UL,
  0x1c00042400000002UL, 0x0000000000000064UL, 0x400000001c007c00UL, 0x000000641c007bc4UL,
  0x0080004100000000UL, 0x0000000220007c00UL, 0x0000006420000424UL, 0x20007c0000000000UL,
  0x20007bc440000000UL, 0x0000000000000064UL, 0x2c007c0000800061UL, 0x2c00042400000002UL,
  0x0000000000000064UL, 0x400000002c007c00UL, 0x000000642c007bc4UL, 0x008000c100000000UL,
  0x0000000238007c00UL, 0x0000006438000424UL, 0x38007c0000000000UL, 0x38007bc440000000UL,
  0x0000000000000064UL, 0x000000bd00800121UL, 0x3c007c0000802141UL, 0x3c0200e300000054UL,
  0x0000110010100101UL, 0x0050050010b74001UL, 0x004f000004ff0000UL, 0x3c0a7c00000f0020UL,
  0x3c0c004300000000UL, 0x0000000000ffff81UL, 0x40007c0000802161UL, 0x400200e300000040UL,
  0x0000110010100101UL, 0x0050050010a34100UL, 0x004f000004ff0000UL, 0x400a7c00001f1020UL,
  0x400c004300000000UL, 0x0000000000ffff81UL, 0x5c00004200802241UL, 0x156000fc08000000UL,
  0x000a00005c020123UL, 0x0000000f00000000UL, 0x00031fff00018fffUL, 0x00000000000043ccUL,
  0x00000001078403f1UL, 0x000000005c0c0043UL, 0x5c0b7c0020422042UL, 0x5d00080300000001UL,
  0x0000c0b602ed43ccUL, 0x0000957c02df43ccUL, 0x0000b52102b043ccUL, 0x0000a25202eb43ccUL,
  0x00008e8402c643ccUL, 0x000013ce02b543ccUL, 0x0000486902b443ccUL, 0x0000e87a02e043ccUL,
  0x00004e2d02e143ccUL, 0x0000bd5a029843ccUL, 0x0000a37a02f443ccUL, 0x00008f9e02ec43ccUL,
  0x00007047026d43ccUL, 0x0000da97029143ccUL, 0x000035a702d243ccUL, 0x0000bf9c02c743ccUL,
  0x000058a802f843ccUL, 0x000043b202ca43ccUL, 0x0000f0a702e543ccUL, 0x00006b7602bd43ccUL,
  0x00001f7d02b843ccUL, 0x0000349a028f43ccUL, 0x0000c09c032743ccUL, 0x0000af5002a043ccUL,
  0x0000c204029f43ccUL, 0x00005b1d02b343ccUL, 0x0000d5e002a743ccUL, 0x00004e2d02e143ccUL,
  0x00001066027d43ccUL, 0x000021d902ad43ccUL, 0x0000772502c043ccUL, 0x000035b402b543ccUL,
  0x54007c0000802201UL, 0x540200430174104cUL, 0x0210428f00087f80UL, 0x0000000055000203UL,
  0x0000000200000001UL, 0x0000000400000003UL, 0x0000000600000005UL, 0x0000000800000007UL,
  0x000000ca00000009UL, 0x000000da000000d2UL, 0x000000e400000062UL, 0x56000d03000000ecUL,
  0x0000f06000000000UL, 0x0000f06000000000UL, 0x0000f06000000000UL, 0x0000f06000000000UL,
  0x0000f06000000000UL, 0x0000f06000000000UL, 0x0000f06000000000UL, 0x0000f06000000000UL,
  0x0000f06000000000UL, 0x0000f06000000000UL, 0x0000f06000000000UL, 0x0000f04000000000UL,
  0x0000f04000000000UL, 0x0000f02000000000UL, 0x0000eb4008000000UL, 0x0000e62010000000UL,
  0x0000e0c018000000UL, 0x0000db0020000000UL, 0x0000e0e018000000UL, 0x0000e0e018000000UL,
  0x0000e0e018000000UL, 0x0000e0e018000000UL, 0x0000e0e018000000UL, 0x0000e0e018000000UL,
  0x0000e86010000000UL, 0x0000e0c018000000UL, 0x0000e0c018000000UL, 0x0000e0c018000000UL,
  0x0000e0c018000000UL, 0x0000e0c018000000UL, 0x0000e0c018000000UL, 0x0000e0a018000000UL,
  0x0000e0a018000000UL, 0x0000e0a018000000UL, 0x0000aad76b00f800UL, 0x0000e08018000000UL,
  0x0000e08018000000UL, 0x0000e08018000000UL, 0x0000e06018000000UL, 0x0000e06018000000UL,
  0x0000e06018000000UL, 0x0000e06018000000UL, 0x0000e06018000000UL, 0x0000e06018000000UL,
  0x0000ee6010000000UL, 0x0000e04018000000UL, 0x0000e04018000000UL, 0x0000e04018000000UL,
  0x0000e04018000000UL, 0x0000e04018000000UL, 0x0000e04018000000UL, 0x0000e02018000000UL,
  0x38007c0000802121UL, 0x380201230008c000UL, 0x0050005034270000UL, 0x00000a0000200010UL,
  0x0000000100000020UL, 0x0000002400000000UL, 0x380c004200100000UL, 0x0000000700000006UL,
  0x00000002380d0043UL, 0x38110043342a203fUL, 0x0000000000000000UL, 0x20007c0000802061UL,
  0x200200430008c184UL, 0x0000040071f599b0UL, 0x00000000200500c3UL, 0x0000000000000000UL,
  0x0000002400000000UL, 0x200c004200100000UL, 0x0000000700000006UL, 0x00000001200d0043UL,
  0x2011004371f59defUL, 0x0000000800000000UL, 0x1c007c0000802041UL, 0x1c0201230008c000UL,
  0x0050005034270010UL, 0x00000a0000200010UL, 0x0000000100000020UL, 0x0000002400000000UL,
  0x1c0c004200100000UL, 0x0000000700000006UL, 0x000000021c0d0043UL, 0x1c110043342a203fUL,
  0x0000000000000000UL, 0x34007c0000802101UL, 0x3402012300080008UL, 0x00500050342e0000UL,
  0x00000a0000200010UL, 0x0000000200000010UL, 0x0000002400032000UL, 0x340c004200100000UL,
  0x0000000700000006UL, 0x00000002340d0043UL, 0x341100433431203fUL, 0x0000000000000000UL,
  0x00000021100a7c00UL, 0x00000013100c0043UL, 0x100f006300000007UL, 0x0000000700000005UL,
  0x101c7c0000000015UL, 0x101e7c0000000025UL, 0x10007c0000000017UL, 0x3400200100000001UL,
  0x000000553c007c00UL, 0x0000004140007c00UL, 0x5c00200154002001UL, 0x200020011c002001UL,
  0x34007fe438002001UL, 0x0000000000000064UL, 0x0000000210007c00UL, 0x0000006410000424UL,
  0x10007c0000000000UL, 0x10007bc440000000UL, 0x0000000000000064UL, 0x00000000100a7c00UL,
  0x00000000100c0043UL, 0x100f006300000000UL, 0x0000000000000000UL, 0x101c7c0000000000UL,
  0x101e7c0000000000UL, 0x34007c0000000000UL, 0x3400042400000002UL, 0x0000000000000064UL,
  0x4000000034007c00UL, 0x0000006434007bc4UL, 0x0080010100000000UL, 0x000000023c007c00UL,
  0x000000643c000424UL, 0x3c007c0000000000UL, 0x3c007bc440000000UL, 0x0000000000000064UL,
  0x40007c0000800141UL, 0x4000042400000002UL, 0x0000000000000064UL, 0x4000000040007c00UL,
  0x0000006440007bc4UL, 0x0080016100000000UL, 0x0088108254007c00UL, 0x0000006454000424UL,
  0x54007c0000000000UL, 0x54007bc440881080UL, 0x0000000000000064UL, 0x5c007c0000800201UL,
  0x5c00042408000002UL, 0x0000000000000064UL, 0x480000005c007c00UL, 0x000000645c007bc4UL,
  0x0080024100000000UL, 0x000000021c007c00UL, 0x000000641c000424UL, 0x1c007c0000000000UL,
  0x1c007bc440000000UL, 0x0000000000000064UL, 0x20007c0000800041UL, 0x2000042400000002UL,
  0x0000000000000064UL, 0x4000000020007c00UL, 0x0000006420007bc4UL, 0x0080006100000000UL,
  0x0000000238007c00UL, 0x0000006438000424UL, 0x38007c0000000000UL, 0x38007bc440000000UL,
  0x0000000000000064UL, 0x000000dd00800121UL, 0x14007c0000802001UL, 0x1402012300080000UL,
  0x00500050342e0000UL, 0x00000a0000200001UL, 0x0000002000000001UL, 0x0000002400032000UL,
  0x140c004200100000UL, 0x0000000700000006UL, 0x00000020140d0043UL, 0x141100433431203fUL,
  0x0000000000000000UL, 0x30007c00008020e1UL, 0x3002004300080108UL, 0x0000190034270000UL,
  0x00000000300500c3UL, 0x0000000000001900UL, 0x0000002400000000UL, 0x300c004200100000UL,
  0x0000000700000006UL, 0x00000020300d0043UL, 0x30110043342a203fUL, 0x0000000000000000UL,
  0x0000000110097c00UL, 0x0000000110007c00UL, 0x1400200130002001UL, 0x0000006430007fe4UL,
  0x10007c0000000000UL, 0x1000042400000002UL, 0x0000000000000064UL, 0x4000000010007c00UL,
  0x0000006410007bc4UL, 0x10097c0000000000UL, 0x30007c0000000000UL, 0x3000042400000002UL,
  0x0000000000000064UL, 0x4000000030007c00UL, 0x0000006430007bc4UL, 0x008000e100000000UL,
  0x0000000214007c00UL, 0x0000006414000424UL, 0x14007c0000000000UL, 0x14007bc440000000UL,
  0x0000000000000064UL, 0x000000fd00800001UL, 0x1c007c0000802041UL, 0x1c02004300880100UL,
  0x00000c8034270000UL, 0x000000001c0500c3UL, 0x0000000000001900UL, 0x0000002400000000UL,
  0x1c0c004200100000UL, 0x0000000700000006UL, 0x000000201c0d0043UL, 0x1c110043342a203fUL,
  0x0000000000000000UL, 0x28007c00008020a1UL, 0x2802004300880108UL, 0x00000c80342e0000UL,
  0x00000000280500c3UL, 0x0000000000001900UL, 0x0000002400000000UL, 0x280c004200100000UL,
  0x0000000700000006UL, 0x00000020280d0043UL, 0x281100433431203fUL, 0x0000000000000000UL,
  0x0000000510077c00UL, 0x0000000110007c00UL, 0x1c00200128002001UL, 0x0000006428007fe4UL,
  0x10007c0000000000UL, 0x1000042400000002UL, 0x0000000000000064UL, 0x4000000010007c00UL,
  0x0000006410007bc4UL, 0x10077c0000000000UL, 0x28007c0000000000UL, 0x2800042400000002UL,
  0x0000000000000064UL, 0x4000000028007c00UL, 0x0000006428007bc4UL, 0x008000a100000000UL,
  0x000000021c007c00UL, 0x000000641c000424UL, 0x1c007c0000000000UL, 0x1c007bc440000000UL,
  0x0000000000000064UL, 0x0000011d00800041UL, 0x14007c0000802001UL, 0x140200430008c100UL,
  0x00001900342f9000UL, 0x00000000140500c3UL, 0x0000000000001900UL, 0x0000002400000000UL,
  0x140c004200100000UL, 0x0000000700000006UL, 0x00000010140d0043UL, 0x141100433431203fUL,
  0x0000000000000000UL, 0x2c007c00008020c1UL, 0x2c02012300080008UL, 0x0050005034270000UL,
  0x0000050000100001UL, 0x0000001000000001UL, 0x0000002400019000UL, 0x2c0c004200100000UL,
  0x0000000700000006UL, 0x000000102c0d0043UL, 0x2c1100433428903fUL, 0x0000000000000000UL,
  0x0000000110087c00UL, 0x0000000110007c00UL, 0x140020012c002001UL, 0x000000642c007fe4UL,
  0x10007c0000000000UL, 0x1000042400000002UL, 0x0000000000000064UL, 0x4000000010007c00UL,
  0x0000006410007bc4UL, 0x10087c0000000000UL, 0x2c007c0000000000UL, 0x2c00042400000002UL,
  0x0000000000000064UL, 0x400000002c007c00UL, 0x000000642c007bc4UL, 0x008000c100000000UL,
  0x0000000214007c00UL, 0x0000006414000424UL, 0x14007c0000000000UL, 0x14007bc440000000UL,
  0x0000000000000064UL, 0x0000013d00800001UL, 0x44007c0000802181UL, 0x440200e300000054UL,
  0x0000115504080303UL, 0x0050028010b74001UL, 0x004f0000027f0000UL, 0x440a7c0000030008UL,
  0x440c004300000000UL, 0x0000000000ffff83UL, 0x48007c00008021a1UL, 0x480200e300000040UL,
  0x0000115504080303UL, 0x0050028010a34100UL, 0x004f0000027f0000UL, 0x480a7c0000070408UL,
  0x480c004300000000UL, 0x0000000000ffff83UL, 0x6000004200802261UL, 0x156000fc08000000UL,
  0x000a000060020123UL, 0x0000000300000000UL, 0x00018fff000063ffUL, 0x0000000000006a69UL,
  0x0000000107c403fdUL, 0x00000000600c0043UL, 0x600b7c0020422042UL, 0x6100040300000001UL,
  0x0000825dff686a69UL, 0x000063cc018d6a69UL, 0x000017a1fd756a69UL, 0x000076c3ff8c6a69UL,
  0x000073bcff4c6a69UL, 0x0000a97200706a69UL, 0x0000711800ba6a69UL, 0x000049e2003c6a69UL,
  0x00005871009d6a69UL, 0x000088db01516a69UL, 0x0000b0b2ff1d6a69UL, 0x00000882ff816a69UL,
  0x0000e8bd002c6a69UL, 0x000026c602016a69UL, 0x00002f06ffaa6a69UL, 0x0000bcddffd86a69UL,
  0x58007c0000802221UL, 0x580200430174104cUL, 0x0090220f00087f80UL, 0x000000c059000043UL,
  0x5a00028300000048UL, 0x0000c18000000000UL, 0x0000c18000000000UL, 0x0000c18000000000UL,
  0x0000c18000000000UL, 0x0000c18000000000UL, 0x0000c18000000000UL, 0x0000bf8efc720000UL,
  0x0000c59237b1089eUL, 0x0000c5d340c9ffc9UL, 0x0000c72f3c4f0000UL, 0x20007c0000802061UL,
  0x200201230008c000UL, 0x0050005034270000UL, 0x0000050000100008UL, 0x0000000100000010UL,
  0x0000002400000000UL, 0x200c004200100000UL, 0x0000000700000006UL, 0x00000004200d0043UL,
  0x201100433428903fUL, 0x0000000000000000UL, 0x28007c00008020a1UL, 0x280200430008c184UL,
  0x0000090071f579b0UL, 0x00000000280500c3UL, 0x0000000000000000UL, 0x0000002400000000UL,
  0x280c004200100000UL, 0x0000000700000006UL, 0x00000001280d0043UL, 0x2811004371f582efUL,
  0x0000000800000000UL, 0x2c007c00008020c1UL, 0x2c0201230008c000UL, 0x0050005034270008UL,
  0x0000050000100008UL, 0x0000000100000010UL, 0x0000002400000000UL, 0x2c0c004200100000UL,
  0x0000000700000006UL, 0x000000042c0d0043UL, 0x2c1100433428903fUL, 0x0000000000000000UL,
  0x14007c0000802001UL, 0x1402012300080008UL, 0x005000503432b000UL, 0x0000050000100004UL,
  0x0000000400000004UL, 0x0000002400019000UL, 0x140c004200100000UL, 0x0000000700000006UL,
  0x00000004140d0043UL, 0x141100433434403fUL, 0x0000000000000000UL, 0x0000002310027c00UL,
  0x0000000710120043UL, 0x101500630000000bUL, 0x0000000b0000000dUL, 0x101d7c0000000019UL,
  0x10207c0000000027UL, 0x10007c000000001bUL, 0x1400200100000001UL, 0x0000005544007c00UL,
  0x0000004148007c00UL, 0x6000200158002001UL, 0x2800200120002001UL, 0x14007fe42c002001UL,
  0x0000000000000064UL, 0x0000000210007c00UL, 0x0000006410000424UL, 0x10007c0000000000UL,
  0x10007bc440000000UL, 0x0000000000000064UL, 0x0000000010027c00UL, 0x0000000010120043UL,
  0x1015006300000000UL, 0x0000000000000000UL, 0x101d7c0000000000UL, 0x10207c0000000000UL,
  0x14007c0000000000UL, 0x1400042400000002UL, 0x0000000000000064UL, 0x4000000014007c00UL,
  0x0000006414007bc4UL, 0x0080000100000000UL, 0x0000000244007c00UL, 0x0000006444000424UL,
  0x44007c0000000000UL, 0x44007bc440000000UL, 0x0000000000000064UL, 0x48007c0000800181UL,
  0x4800042400000002UL, 0x0000000000000064UL, 0x4000000048007c00UL, 0x0000006448007bc4UL,
  0x008001a100000000UL, 0x0088108258007c00UL, 0x0000006458000424UL, 0x58007c0000000000UL,
  0x58007bc440881080UL, 0x0000000000000064UL, 0x60007c0000800221UL, 0x6000042408000002UL,
  0x0000000000000064UL, 0x4800000060007c00UL, 0x0000006460007bc4UL, 0x0080026100000000UL,
  0x0000000220007c00UL, 0x0000006420000424UL, 0x20007c0000000000UL, 0x20007bc440000000UL,
  0x0000000000000064UL, 0x28007c0000800061UL, 0x2800042400000002UL, 0x0000000000000064UL,
  0x4000000028007c00UL, 0x0000006428007bc4UL, 0x008000a100000000UL, 0x000000022c007c00UL,
  0x000000642c000424UL, 0x2c007c0000000000UL, 0x2c007bc440000000UL, 0x0000000000000064UL,
  0x0000015d008000c1UL, 0x3c007c0000802141UL, 0x3c0200e300000054UL, 0x0000115504080303UL,
  0x0050028010b74001UL, 0x004f0000027f0000UL, 0x3c0a7c0000030008UL, 0x3c0c004300000000UL,
  0x0000000000ffff83UL, 0x40007c0000802161UL, 0x400200e300000040UL, 0x0000115504080303UL,
  0x0050028010a34100UL, 0x004f0000027f0000UL, 0x400a7c0000070408UL, 0x400c004300000000UL,
  0x0000000000ffff83UL, 0x6400004200802281UL, 0x156000fc08000000UL, 0x000b000064020123UL,
  0x0000000300000000UL, 0x00018fff000063ffUL, 0x0000000000007688UL, 0x0000000107c403fdUL,
  0x00000000640c0043UL, 0x640b7c0020422042UL, 0x6500040300000001UL, 0x0000cc4003867688UL,
  0x0000a11905067688UL, 0x0000243905f17688UL, 0x00000306045c7688UL, 0x0000f71d05887688UL,
  0x00003a4905ab7688UL, 0x0000636405037688UL, 0x0000288505de7688UL, 0x000088c904877688UL,
  0x000008c905b77688UL, 0x000031e4050f7688UL, 0x0000d98804287688UL, 0x0000901b04907688UL,
  0x0000ab73052b7688UL, 0x00003e7c05f97688UL, 0x000048a404817688UL, 0x54007c0000802201UL,
  0x540200430174104cUL, 0x0210220f00087f80UL, 0x0000000055000203UL, 0x0000000200000001UL,
  0x0000000400000003UL, 0x0000000600000005UL, 0x000000c800000007UL, 0x00000018000000d0UL,
  0x00000021000000d9UL, 0x0000002300000022UL, 0x5600094300000024UL, 0x0000c20000000000UL,
  0x0000c20000000000UL, 0x0000c20000000000UL, 0x0000c20000000000UL, 0x0000c20000000000UL,
  0x0000c20000000000UL, 0x0000c20000000000UL, 0x0000c20000000000UL, 0x0000c20000000000UL,
  0x0000c18000000000UL, 0x0000c18000000000UL, 0x0000c18000000000UL, 0x0000c580e0000000UL,
  0x0000c10000000000UL, 0x0000c10000000000UL, 0x0000c10000000000UL, 0x0000b98020000000UL,
  0x0000b08040000000UL, 0x0000b08040000000UL, 0x0000b08040000000UL, 0x0000a48060000000UL,
  0x0000a40060000000UL, 0x0000b18040000000UL, 0x0000b20040000000UL, 0x0000ac384fc3ff87UL,
  0x0000b40040000000UL, 0x0000b40040000000UL, 0x0000b40040000000UL, 0x0000b48040000000UL,
  0x0000b48040000000UL, 0x0000978060000000UL, 0x0000b50040000000UL, 0x0000b50040000000UL,
  0x0000aa334f72ffb9UL, 0x0000b77e39d60047UL, 0x0000a40e5404ffb9UL, 0x00009fed565fffb9UL,
  0x2c007c00008020c1UL, 0x2c0201230008c000UL, 0x005000503432b000UL, 0x0000050000100008UL,
  0x0000000100000010UL, 0x0000002400000000UL, 0x2c0c004200100000UL, 0x0000000700000006UL,
  0x000000042c0d0043UL, 0x2c1100433434403fUL, 0x0000000000000000UL, 0x18007c0000802021UL,
  0x180200430008c184UL, 0x0000090071f582b0UL, 0x00000000180500c3UL, 0x0000000000000000UL,
  0x0000002400000000UL, 0x180c004200100000UL, 0x0000000700000006UL, 0x00000001180d0043UL,
  0x1811004371f58befUL, 0x0000000800000000UL, 0x24007c0000802081UL, 0x240201230008c000UL,
  0x005000503432b008UL, 0x0000050000100008UL, 0x0000000100000010UL, 0x0000002400000000UL,
  0x240c004200100000UL, 0x0000000700000006UL, 0x00000004240d0043UL, 0x241100433434403fUL,
  0x0000000000000000UL, 0x30007c00008020e1UL, 0x3002012300080008UL, 0x0050005034270000UL,
  0x0000050000100004UL, 0x0000000400000004UL, 0x0000002400019000UL, 0x300c004200100000UL,
  0x0000000700000006UL, 0x00000004300d0043UL, 0x301100433428903fUL, 0x0000000000000000UL,
  0x0000002110097c00UL, 0x0000000d100c0043UL, 0x100f006300000003UL, 0x0000000300000009UL,
  0x101c7c0000000015UL, 0x10227c0000000029UL, 0x10007c0000000017UL, 0x3000200100000001UL,
  0x000000553c007c00UL, 0x0000004140007c00UL, 0x6400200154002001UL, 0x2400200118002001UL,
  0x30007fe42c002001UL, 0x0000000000000064UL, 0x0000000210007c00UL, 0x0000006410000424UL,
  0x10007c0000000000UL, 0x10007bc440000000UL, 0x0000000000000064UL, 0x0000000010097c00UL,
  0x00000000100c0043UL, 0x100f006300000000UL, 0x0000000000000000UL, 0x101c7c0000000000UL,
  0x10227c0000000000UL, 0x30007c0000000000UL, 0x3000042400000002UL, 0x0000000000000064UL,
  0x4000000030007c00UL, 0x0000006430007bc4UL, 0x008000e100000000UL, 0x000000023c007c00UL,
  0x000000643c000424UL, 0x3c007c0000000000UL, 0x3c007bc440000000UL, 0x0000000000000064UL,
  0x40007c0000800141UL, 0x4000042400000002UL, 0x0000000000000064UL, 0x4000000040007c00UL,
  0x0000006440007bc4UL, 0x0080016100000000UL, 0x0088108254007c00UL, 0x0000006454000424UL,
  0x54007c0000000000UL, 0x54007bc440881080UL, 0x0000000000000064UL, 0x64007c0000800201UL,
  0x6400042408000002UL, 0x0000000000000064UL, 0x4800000064007c00UL, 0x0000006464007bc4UL,
  0x0080028100000000UL, 0x0000000218007c00UL, 0x0000006418000424UL, 0x18007c0000000000UL,
  0x18007bc440000000UL, 0x0000000000000064UL, 0x24007c0000800021UL, 0x2400042400000002UL,
  0x0000000000000064UL, 0x4000000024007c00UL, 0x0000006424007bc4UL, 0x0080008100000000UL,
  0x000000022c007c00UL, 0x000000642c000424UL, 0x2c007c0000000000UL, 0x2c007bc440000000UL,
  0x0000000000000064UL, 0x0000017d008000c1UL, 0x68000042008022a1UL, 0x0500016008000000UL,
  0x0007182068027c00UL, 0x5f12400068070043UL, 0x680c004300006223UL, 0x1041104100000000UL,
  0x30007c00008020e1UL, 0x3002004300080100UL, 0x00001900342f9000UL, 0x00000000300500c3UL,
  0x0000000000001900UL, 0x0000002400000000UL, 0x300c004200100000UL, 0x0000000700000006UL,
  0x00000010300d0043UL, 0x301100433431203fUL, 0x0000000000000000UL, 0x1c007c0000802041UL,
  0x1c02012300080000UL, 0x0050005034270000UL, 0x0000050000100001UL, 0x0000001000000001UL,
  0x0000002400019000UL, 0x1c0c004200100000UL, 0x0000000700000006UL, 0x000000101c0d0043UL,
  0x1c1100433428903fUL, 0x0000000000000000UL, 0x24007c0000802081UL, 0x2402004300080108UL,
  0x0000190034312000UL, 0x00000000240500c3UL, 0x0000000000001900UL, 0x0000002400000000UL,
  0x240c004200100000UL, 0x0000000700000006UL, 0x00000010240d0043UL, 0x241100433432b03fUL,
  0x0000000000000000UL, 0x0000002b10067c00UL, 0x0000000f10240043UL, 0x10007c0000000005UL,
  0x2400200100000001UL, 0x1c00200168002001UL, 0x24007fe430002001UL, 0x0000000000000064UL,
  0x0000000210007c00UL, 0x0000006410000424UL, 0x10007c0000000000UL, 0x10007bc440000000UL,
  0x0000000000000064UL, 0x0000000010067c00UL, 0x0000000010240043UL, 0x24007c0000000000UL,
  0x2400042400000002UL, 0x0000000000000064UL, 0x4000000024007c00UL, 0x0000006424007bc4UL,
  0x0080008100000000UL, 0x0800000268007c00UL, 0x0000006468000424UL, 0x68007c0000000000UL,
  0x68007bc448000000UL, 0x0000000000000064UL, 0x1c007c00008002a1UL, 0x1c00042400000002UL,
  0x0000000000000064UL, 0x400000001c007c00UL, 0x000000641c007bc4UL, 0x0080004100000000UL,
  0x0000000230007c00UL, 0x0000006430000424UL, 0x30007c0000000000UL, 0x30007bc440000000UL,
  0x0000000000000064UL, 0x0000019d008000e1UL, 0x20007c0000802061UL, 0x2002004300080100UL,
  0x00001900342e0000UL, 0x00000000200500c3UL, 0x0000000000001900UL, 0x0000002400000000UL,
  0x200c004200100000UL, 0x0000000700000006UL, 0x00000030200d0043UL, 0x201100433432b03fUL,
  0x0000000000000000UL, 0x38007c0000802121UL, 0x3802012300080008UL, 0x0050005034270000UL,
  0x00000f0000300001UL, 0x0000003000000001UL, 0x000000240004b000UL, 0x380c004200100000UL,
  0x0000000700000006UL, 0x00000030380d0043UL, 0x38110043342bb03fUL, 0x0000000000000000UL,
  0x00000007100b7c00UL, 0x0000000110007c00UL, 0x2000200138002001UL, 0x0000006438007fe4UL,
  0x10007c0000000000UL, 0x1000042400000002UL, 0x0000000000000064UL, 0x4000000010007c00UL,
  0x0000006410007bc4UL, 0x100b7c0000000000UL, 0x38007c0000000000UL, 0x3800042400000002UL,
  0x0000000000000064UL, 0x4000000038007c00UL, 0x0000006438007bc4UL, 0x0080012100000000UL,
  0x0000000220007c00UL, 0x0000006420000424UL, 0x20007c0000000000UL, 0x20007bc440000000UL,
  0x0000000000000064UL, 0x000001bd00800061UL, 0x44007c0000802181UL, 0x440200e300000054UL,
  0x0000110010180101UL, 0x0050078010b74002UL, 0x004f0000077f0000UL, 0x440a7c00000f0020UL,
  0x440c004300000000UL, 0x0000000000ffff83UL, 0x48007c00008021a1UL, 0x480200e300000040UL,
  0x0000110010180101UL, 0x0050078010a34200UL, 0x004f0000077f0000UL, 0x480a7c00001f1020UL,
  0x480c004300000000UL, 0x0000000000ffff83UL, 0x5c00004200802241UL, 0x156000fc08000000UL,
  0x000a00005c020123UL, 0x0000000f00000000UL, 0x00031fff00018fffUL, 0x00000000000062dfUL,
  0x00000001078403f1UL, 0x000000005c0c0043UL, 0x5c0b7c0020422042UL, 0x5d00080300000001UL,
  0x000000fa026262dfUL, 0x00008af302ba62dfUL, 0x0000d3b500ec62dfUL, 0x0000d7f101d462dfUL,
  0x00003c7b01b662dfUL, 0x00009e7102d162dfUL, 0x0000420d020f62dfUL, 0x00000762ff4362dfUL,
  0x0000f54a00f962dfUL, 0x0000bbf7022e62dfUL, 0x00007386021d62dfUL, 0x0000e13b026d62dfUL,
  0x0000572a01f962dfUL, 0x000015a101b262dfUL, 0x0000814801a362dfUL, 0x00006f55014362dfUL,
  0x00002e6e01ce62dfUL, 0x00000a1802c362dfUL, 0x0000b951010b62dfUL, 0x00000cf901eb62dfUL,
  0x0000a6c2022862dfUL, 0x00002e7901dc62dfUL, 0x0000dc9200f962dfUL, 0x00003cbd020a62dfUL,
  0x0000db7301ce62dfUL, 0x0000f4de006d62dfUL, 0x0000a4e0020162dfUL, 0x0000230b00c862dfUL,
  0x0000450d016162dfUL, 0x000035cb023262dfUL, 0x00004165037e62dfUL, 0x0000305b020362dfUL,
  0x58007c0000802221UL, 0x580200430174104cUL, 0x0210324f00087f80UL, 0x0000000059000203UL,
  0x0000000200000001UL, 0x0000000400000003UL, 0x0000000600000005UL, 0x0000004800000007UL,
  0x00000012000000caUL, 0x0000001b000000d3UL, 0x0000001e0000005cUL, 0x5a0008030000001fUL,
  0x0000e10000000000UL, 0x0000e10000000000UL, 0x0000e10000000000UL, 0x0000e10000000000UL,
  0x0000e10000000000UL, 0x0000e10000000000UL, 0x0000e10000000000UL, 0x0000e086fe8c0000UL,
  0x0000e066fccd0000UL, 0x0000e23be4000aabUL, 0x0000dc8010000000UL, 0x0000dc8010000000UL,
  0x0000dcc010000000UL, 0x0000d78020000000UL, 0x0000d78020000000UL, 0x0000d10030000000UL,
  0x0000d7c020000000UL, 0x0000d80020000000UL, 0x0000d2f42cdfff6bUL, 0x0000da0020000000UL,
  0x0000da4020000000UL, 0x0000da8020000000UL, 0x0000da8020000000UL, 0x0000dac020000000UL,
  0x0000cc4030000000UL, 0x0000db0020000000UL, 0x0000cb8030000000UL, 0x0000d6ae24920000UL,
  0x0000f36af8440222UL, 0x0000b4365511fddeUL, 0x0000d6a524920000UL, 0x0000d6a524920000UL,
  0x2c007c00008020c1UL, 0x2c0201230008c000UL, 0x0050005034270000UL, 0x00000f0000300018UL,
  0x0000000100000030UL, 0x0000002400000000UL, 0x2c0c004200100000UL, 0x0000000700000006UL,
  0x000000022c0d0043UL, 0x2c110043342bb03fUL, 0x0000000000000000UL, 0x14007c0000802001UL,
  0x140200430008c184UL, 0x0000060071f593b0UL, 0x00000000140500c3UL, 0x0000000000000000UL,
  0x0000002400000000UL, 0x140c004200100000UL, 0x0000000700000006UL, 0x00000001140d0043UL,
  0x1411004371f599efUL, 0x0000000800000000UL, 0x20007c0000802061UL, 0x200201230008c000UL,
  0x0050005034270018UL, 0x00000f0000300018UL, 0x0000000100000030UL, 0x0000002400000000UL,
  0x200c004200100000UL, 0x0000000700000006UL, 0x00000002200d0043UL, 0x20110043342bb03fUL,
  0x0000000000000000UL, 0x38007c0000802121UL, 0x3802012300080008UL, 0x00500050342e0000UL,
  0x00000a0000200010UL, 0x0000000200000010UL, 0x0000002400032000UL, 0x380c004200100000UL,
  0x0000000700000006UL, 0x00000002380d0043UL, 0x381100433431203fUL, 0x0000000000000000UL,
  0x00000023100b7c00UL, 0x0000000d10120043UL, 0x1015006300000001UL, 0x0000000100000007UL,
  0x101d004300000019UL, 0x0000001b00000025UL, 0x0000000110007c00UL, 0x44007c0038002001UL,
  0x48007c0000000055UL, 0x5800200100000041UL, 0x140020015c002001UL, 0x2c00200120002001UL,
  0x0000006438007fe4UL, 0x10007c0000000000UL, 0x1000042400000002UL, 0x0000000000000064UL,
  0x4000000010007c00UL, 0x0000006410007bc4UL, 0x100b7c0000000000UL, 0x1012004300000000UL,
  0x0000000000000000UL, 0x0000000010150063UL, 0x0000000000000000UL, 0x00000000101d0043UL,
  0x38007c0000000000UL, 0x3800042400000002UL, 0x0000000000000064UL, 0x4000000038007c00UL,
  0x0000006438007bc4UL, 0x0080012100000000UL, 0x0000000244007c00UL, 0x0000006444000424UL,
  0x44007c0000000000UL, 0x44007bc440000000UL, 0x0000000000000064UL, 0x48007c0000800181UL,
  0x4800042400000002UL, 0x0000000000000064UL, 0x4000000048007c00UL, 0x0000006448007bc4UL,
  0x008001a100000000UL, 0x0088108258007c00UL, 0x0000006458000424UL, 0x58007c0000000000UL,
  0x58007bc440881080UL, 0x0000000000000064UL, 0x5c007c0000800221UL, 0x5c00042408000002UL,
  0x0000000000000064UL, 0x480000005c007c00UL, 0x000000645c007bc4UL, 0x0080024100000000UL,
  0x0000000214007c00UL, 0x0000006414000424UL, 0x14007c0000000000UL, 0x14007bc440000000UL,
  0x0000000000000064UL, 0x20007c0000800001UL, 0x2000042400000002UL, 0x0000000000000064UL,
  0x4000000020007c00UL, 0x0000006420007bc4UL, 0x0080006100000000UL, 0x000000022c007c00UL,
  0x000000642c000424UL, 0x2c007c0000000000UL, 0x2c007bc440000000UL, 0x0000000000000064UL,
  0x000001dd008000c1UL, 0x3c007c0000802141UL, 0x3c0200e300000054UL, 0x0000221104080303UL,
  0x0050028010b74003UL, 0x004f0000027f0000UL, 0x3c0a7c0000030010UL, 0x3c0c004300000000UL,
  0x0000000000ffff84UL, 0x40007c0000802161UL, 0x400200e300000040UL, 0x0000221104080303UL,
  0x0050028010b74000UL, 0x004f0000027f0000UL, 0x400a7c0000070410UL, 0x400c004300000000UL,
  0x0000000000ffff84UL, 0x44007c0000802181UL, 0x440200e300000040UL, 0x0000221104080303UL,
  0x0050028010b74000UL, 0x004f0000027f0000UL, 0x440a7c00000b0810UL, 0x440c004300000000UL,
  0x0000000000ffff84UL, 0x48007c00008021a1UL, 0x480200e300000040UL, 0x0000221104080303UL,
  0x0050028010a34300UL, 0x004f0000027f0000UL, 0x480a7c00000f0c10UL, 0x480c004300000000UL,
  0x0000000000ffff84UL, 0x6000004200802261UL, 0x156000fc08000000UL, 0x000a000060020123UL,
  0x0000000300000000UL, 0x00018fff000018ffUL, 0x0000000000006d51UL, 0x00000001070403fdUL,
  0x00000000600c0043UL, 0x600b7c0020422042UL, 0x6100100300000001UL, 0x000006bb02cf6d51UL,
  0x00001e05019d6d51UL, 0x00001c5901d56d51UL, 0x0000985103e86d51UL, 0x00006c0301fa6d51UL,
  0x000044fa02336d51UL, 0x0000fbd9041a6d51UL, 0x0000eb1d025d6d51UL, 0x00009540022b6d51UL,
  0x0000b5af03526d51UL, 0x000007f402756d51UL, 0x00005826033c6d51UL, 0x00008bbe017f6d51UL,
  0x0000412f02816d51UL, 0x00001e24025d6d51UL, 0x0000c36304e16d51UL, 0x0000640f02f46d51UL,
  0x00001b7f03206d51UL, 0x0000044803836d51UL, 0x0000da2705ab6d51UL, 0x00004b7602b16d51UL,
  0x00005bb302bd6d51UL, 0x00004a1f039a6d51UL, 0x0000d4af03936d51UL, 0x00000cb203fa6d51UL,
  0x000003eb03e16d51UL, 0x0000966f02e06d51UL, 0x0000358401ab6d51UL, 0x000010c402ce6d51UL,
  0x000088b002606d51UL, 0x0000246d02ea6d51UL, 0x000095e7023e6d51UL, 0x0000cc0902eb6d51UL,
  0x00005a6e02d76d51UL, 0x0000935300e36d51UL, 0x0000d2af031a6d51UL, 0x0000cd24046f6d51UL,
  0x0000913703976d51UL, 0x0000c83d01ea6d51UL, 0x0000a644030a6d51UL, 0x0000a92802786d51UL,
  0x00002efe038b6d51UL, 0x0000d10202036d51UL, 0x0000549b050a6d51UL, 0x00008a7c04376d51UL,
  0x00003c73024b6d51UL, 0x0000e4ab021f6d51UL, 0x00002c0d013f6d51UL, 0x00008a5c02286d51UL,
  0x00005dc602676d51UL, 0x0000602301336d51UL, 0x00005bc701ee6d51UL, 0x000056d803166d51UL,
  0x00003b3002656d51UL, 0x0000cc48046b6d51UL, 0x0000844a042a6d51UL, 0x000089f403956d51UL,
  0x0000d48f02d36d51UL, 0x0000ea6103196d51UL, 0x00002efe038b6d51UL, 0x0000af0b04726d51UL,
  0x0000bc2103906d51UL, 0x00007fd804656d51UL, 0x00000ba002b66d51UL, 0x54007c0000802201UL,
  0x540200430174104cUL, 0x0210224f00087f80UL, 0x0000000055000203UL, 0x0000000200000001UL,
  0x000000c400000003UL, 0x000000cd0000000cUL, 0x000000d600000015UL, 0x00000026000000deUL,
  0x0000002800000027UL, 0x000000ea00000029UL, 0x56000e83000000f2UL, 0x0000e28000000000UL,
  0x0000e28000000000UL, 0x0000e28000000000UL, 0x0000e28000000000UL, 0x0000e28000000000UL,
  0x0000e28000000000UL, 0x0000e28000000000UL, 0x0000e28000000000UL, 0x0000e28000000000UL,
  0x0000e28000000000UL, 0x0000e28000000000UL, 0x0000e28000000000UL, 0x0000e24000000000UL,
  0x0000e24000000000UL, 0x0000e24000000000UL, 0x0000db40e0000000UL, 0x0000e20000000000UL,
  0x0000e20000000000UL, 0x0000e20000000000UL, 0x0000dd00e0000000UL, 0x0000e1c000000000UL,
  0x0000e0e7f71cff87UL, 0x0000e10000000000UL, 0x0000e0c000000000UL, 0x0000e1c0e0000000UL,
  0x0000e08000000000UL, 0x0000e280e0000000UL, 0x0000e04000000000UL, 0x0000e04000000000UL,
  0x0000e3c0e0000000UL, 0x0000e00000000000UL, 0x0000e00000000000UL, 0x0000db0020000000UL,
  0x0000e04000000000UL, 0x0000e08000000000UL, 0x0000e0c000000000UL, 0x0000da0020000000UL,
  0x0000e18000000000UL, 0x0000e406c9f505b0UL, 0x0000cf3136140148UL, 0x0000c6b75b6e0000UL,
  0x0000bc9b7b9aff33UL, 0x0000c30060000000UL, 0x0000c2c060000000UL, 0x0000c28060000000UL,
  0x0000c28060000000UL, 0x0000dc8040000000UL, 0x0000c24060000000UL, 0x0000c20060000000UL,
  0x0000c1c060000000UL, 0x0000ddc040000000UL, 0x0000de0040000000UL, 0x0000c14060000000UL,
  0x0000c10060000000UL, 0x0000df0040000000UL, 0x0000df4040000000UL, 0x0000c08060000000UL,
  0x0000c04060000000UL, 0x1c007c0000802041UL, 0x1c0201230008c000UL, 0x00500050342e0000UL,
  0x00000a0000200008UL, 0x0000000100000020UL, 0x0000002400000000UL, 0x1c0c004200100000UL,
  0x0000000700000006UL, 0x000000101c0d0043UL, 0x1c1100433431203fUL, 0x0000000000000000UL,
  0x38007c0000802121UL, 0x380200430008c184UL, 0x0000480071f1df00UL, 0x00000000380500c3UL,
  0x0000000000000000UL, 0x0000002400000000UL, 0x380c004200100000UL, 0x0000000700000006UL,
  0x00000001380d0043UL, 0x3811004371f2273fUL, 0x0000000800000000UL, 0x30007c00008020e1UL,
  0x300201230008c000UL, 0x00500050342e0008UL, 0x00000a0000200008UL, 0x0000000100000020UL,
  0x0000002400000000UL, 0x300c004200100000UL, 0x0000000700000006UL, 0x00000010300d0043UL,
  0x301100433431203fUL, 0x0000000000000000UL, 0x28007c00008020a1UL, 0x280201230008c000UL,
  0x00500050342e0010UL, 0x00000a0000200008UL, 0x0000000100000020UL, 0x0000002400000000UL,
  0x280c004200100000UL, 0x0000000700000006UL, 0x00000010280d0043UL, 0x281100433431203fUL,
  0x0000000000000000UL, 0x20007c0000802061UL, 0x200201230008c000UL, 0x00500050342e0018UL,
  0x00000a0000200008UL, 0x0000000100000020UL, 0x0000002400000000UL, 0x200c004200100000UL,
  0x0000000700000006UL, 0x00000010200d0043UL, 0x201100433431203fUL, 0x0000000000000000UL,
  0x18007c0000802021UL, 0x1802012300080008UL, 0x0028002834312000UL, 0x00000a0000400004UL,
  0x0000001000000004UL, 0x0000002400019000UL, 0x180c004200100000UL, 0x0000000700000006UL,
  0x00000010180d0043UL, 0x181100433432b03fUL, 0x0000000000000000UL, 0x0000002110037c00UL,
  0x00000005100c0043UL, 0x100f012300000013UL, 0x000000130000000fUL, 0x0000000b00000015UL,
  0x0000001700000013UL, 0x0000001300000007UL, 0x101c7c0000000019UL, 0x10207c0000000027UL,
  0x10007c000000001bUL, 0x1800200100000001UL, 0x000000553c007c00UL, 0x0000004140007c00UL,
  0x0000004144007c00UL, 0x0000004148007c00UL, 0x6000200154002001UL, 0x200020011c002001UL,
  0x3000200128002001UL, 0x18007fe438002001UL, 0x0000000000000064UL, 0x0000000210007c00UL,
  0x0000006410000424UL, 0x10007c0000000000UL, 0x10007bc440000000UL, 0x0000000000000064UL,
  0x0000000010037c00UL, 0x00000000100c0043UL, 0x100f012300000000UL, 0x0000000000000000UL,
  0x0000000000000000UL, 0x0000000000000000UL, 0x0000000000000000UL, 0x101c7c0000000000UL,
  0x10207c0000000000UL, 0x18007c0000000000UL, 0x1800042400000002UL, 0x0000000000000064UL,
  0x4000000018007c00UL, 0x0000006418007bc4UL, 0x0080002100000000UL, 0x000000023c007c00UL,
  0x000000643c000424UL, 0x3c007c0000000000UL, 0x3c007bc440000000UL, 0x0000000000000064UL,
  0x40007c0000800141UL, 0x4000042400000002UL, 0x0000000000000064UL, 0x4000000040007c00UL,
  0x0000006440007bc4UL, 0x0080016100000000UL, 0x0000000244007c00UL, 0x0000006444000424UL,
  0x44007c0000000000UL, 0x44007bc440000000UL, 0x0000000000000064UL, 0x48007c0000800181UL,
  0x4800042400000002UL, 0x0000000000000064UL, 0x4000000048007c00UL, 0x0000006448007bc4UL,
  0x008001a100000000UL, 0x0088108254007c00UL, 0x0000006454000424UL, 0x54007c0000000000UL,
  0x54007bc440881080UL, 0x0000000000000064UL, 0x60007c0000800201UL, 0x6000042408000002UL,
  0x0000000000000064UL, 0x4800000060007c00UL, 0x0000006460007bc4UL, 0x0080026100000000UL,
  0x000000021c007c00UL, 0x000000641c000424UL, 0x1c007c0000000000UL, 0x1c007bc440000000UL,
  0x0000000000000064UL, 0x20007c0000800041UL, 0x2000042400000002UL, 0x0000000000000064UL,
  0x4000000020007c00UL, 0x0000006420007bc4UL, 0x0080006100000000UL, 0x0000000228007c00UL,
  0x0000006428000424UL, 0x28007c0000000000UL, 0x28007bc440000000UL, 0x0000000000000064UL,
  0x30007c00008000a1UL, 0x3000042400000002UL, 0x0000000000000064UL, 0x4000000030007c00UL,
  0x0000006430007bc4UL, 0x008000e100000000UL, 0x0000000238007c00UL, 0x0000006438000424UL,
  0x38007c0000000000UL, 0x38007bc440000000UL, 0x0000000000000064UL, 0x000001fd00800121UL,
  0x3c007c0000802141UL, 0x3c0200e300000054UL, 0x0000110010100101UL, 0x0028028010b74002UL,
  0x00270000027f0000UL, 0x3c0a7c00000f0040UL, 0x3c0c004300000000UL, 0x0000000000ffff8aUL,
  0x40007c0000802161UL, 0x400200e300000040UL, 0x0000110010100101UL, 0x0028028010b74000UL,
  0x00270000027f0000UL, 0x400a7c00001f1040UL, 0x400c004300000000UL, 0x0000000000ffff8aUL,
  0x44007c0000802181UL, 0x440200e300000040UL, 0x0000110010100101UL, 0x0028028010b74000UL,
  0x00270000027f0000UL, 0x440a7c00002f2040UL, 0x440c004300000000UL, 0x0000000000ffff8aUL,
  0x48007c00008021a1UL, 0x480200e300000040UL, 0x0000110010100101UL, 0x0028028010a34200UL,
  0x00270000027f0000UL, 0x480a7c00003f3040UL, 0x480c004300000000UL, 0x0000000000ffff8aUL,
  0x6400004200802281UL, 0x156000fc08000000UL, 0x000a000064020123UL, 0x0000000f00000000UL,
  0x00018fff000063ffUL, 0x00000000000071fbUL, 0x00000001070403f1UL, 0x00000000640c0043UL,
  0x640b7c0020422042UL, 0x6500100300000001UL, 0x0000e011ff4771fbUL, 0x000046ce04c371fbUL,
  0x0000eaf2043871fbUL, 0x000010fc016571fbUL, 0x000078a6ff5e71fbUL, 0x000063b6fdbc71fbUL,
  0x00000e93025871fbUL, 0x00000f9401a071fbUL, 0x00003092026471fbUL, 0x0000c102017071fbUL,
  0x0000ac2c02b771fbUL, 0x0000d8da01e271fbUL, 0x0000e1d1000571fbUL, 0x00001d78fd2371fbUL,
  0x00007e0a006271fbUL, 0x0000e818014971fbUL, 0x0000157c022971fbUL, 0x000033f7fd5471fbUL,
  0x00006c1c041c71fbUL, 0x0000f1ad01da71fbUL, 0x00007d12047f71fbUL, 0x00001948013971fbUL,
  0x00003aad027a71fbUL, 0x0000f569016671fbUL, 0x0000b4e402ca71fbUL, 0x00005a3b03b771fbUL,
  0x0000ae76ff1971fbUL, 0x00008ae4007e71fbUL, 0x000067a4031a71fbUL, 0x00006b18013171fbUL,
  0x0000f8cdfff971fbUL, 0x000016f4017271fbUL, 0x00002fde00b071fbUL, 0x00000f6d02d671fbUL,
  0x0000beaf01a971fbUL, 0x00004d2901aa71fbUL, 0x0000f1bc015e71fbUL, 0x0000c8b9023b71fbUL,
  0x0000b6c9025271fbUL, 0x0000f408016371fbUL, 0x00003063003571fbUL, 0x0000cb99014971fbUL,
  0x00002b0202d471fbUL, 0x0000c1d6022c71fbUL, 0x0000034600cb71fbUL, 0x00003f43028471fbUL,
  0x00000eb1016071fbUL, 0x00003c6b033871fbUL, 0x00009e0701de71fbUL, 0x00002369011171fbUL,
  0x00006662021f71fbUL, 0x00004e8201eb71fbUL, 0x0000f306021b71fbUL, 0x000025f502c971fbUL,
  0x00008ec9027771fbUL, 0x0000588d027d71fbUL, 0x000014a101ab71fbUL, 0x000058f302fa71fbUL,
  0x000077c402c171fbUL, 0x0000fc1d02e971fbUL, 0x00009536028571fbUL, 0x0000a971027371fbUL,
  0x0000fede02ef71fbUL, 0x00007bf6024e71fbUL, 0x58007c0000802221UL, 0x580200430174104cUL,
  0x0090324f00087f80UL, 0x0000000059000043UL, 0x5a000243000000c1UL, 0x0000e3c6fd3affe2UL,
  0x0000e3cb00b001d4UL, 0x0000e463faab03e1UL, 0x0000e10a08440222UL, 0x0000d88020000000UL,
  0x0000d86020000000UL, 0x0000efa2ff1c016cUL, 0x0000bad74666fe66UL, 0x0000ea370e660079UL,
  0x38007c0000802121UL, 0x380201230008c000UL, 0x0028002834312000UL, 0x00000a0000400010UL,
  0x0000000100000040UL, 0x0000002400000000UL, 0x380c004200100000UL, 0x0000000700000006UL,
  0x00000004380d0043UL, 0x381100433432b03fUL, 0x0000000000000000UL, 0x18007c0000802021UL,
  0x180200430008c184UL, 0x0000100071f539b0UL, 0x00000000180500c3UL, 0x0000000000000000UL,
  0x0000002400000000UL, 0x180c004200100000UL, 0x0000000700000006UL, 0x00000001180d0043UL,
  0x1811004371f549efUL, 0x0000000800000000UL, 0x14007c0000802001UL, 0x140201230008c000UL,
  0x0028002834312010UL, 0x00000a0000400010UL, 0x0000000100000040UL, 0x0000002400000000UL,
  0x140c004200100000UL, 0x0000000700000006UL, 0x00000004140d0043UL, 0x141100433432b03fUL,
  0x0000000000000000UL, 0x24007c0000802081UL, 0x240201230008c000UL, 0x0028002834312020UL,
  0x00000a0000400010UL, 0x0000000100000040UL, 0x0000002400000000UL, 0x240c004200100000UL,
  0x0000000700000006UL, 0x00000004240d0043UL, 0x241100433432b03fUL, 0x0000000000000000UL,
  0x2c007c00008020c1UL, 0x2c0201230008c000UL, 0x0028002834312030UL, 0x00000a0000400010UL,
  0x0000000100000040UL, 0x0000002400000000UL, 0x2c0c004200100000UL, 0x0000000700000006UL,
  0x000000042c0d0043UL, 0x2c1100433432b03fUL, 0x0000000000000000UL, 0x34007c0000802101UL,
  0x3402012300080008UL, 0x00280028342f9000UL, 0x00000a0000400010UL, 0x0000000400000010UL,
  0x0000002400019000UL, 0x340c004200100000UL, 0x0000000700000006UL, 0x00000004340d0043UL,
  0x341100433431203fUL, 0x0000000000000000UL, 0x00000023100a7c00UL, 0x00000013100c0043UL,
  0x100f012300000003UL, 0x0000000300000001UL, 0x0000000900000015UL, 0x0000001700000003UL,
  0x000000030000000dUL, 0x101d7c0000000019UL, 0x10227c0000000029UL, 0x10007c000000001bUL,
  0x3400200100000001UL, 0x000000553c007c00UL, 0x0000004140007c00UL, 0x0000004144007c00UL,
  0x0000004148007c00UL, 0x6400200158002001UL, 0x1800200114002001UL, 0x2c00200124002001UL,
  0x34007fe438002001UL, 0x0000000000000064UL, 0x0000000210007c00UL, 0x0000006410000424UL,
  0x10007c0000000000UL, 0x10007bc440000000UL, 0x0000000000000064UL, 0x00000000100a7c00UL,
  0x00000000100c0043UL, 0x100f012300000000UL, 0x0000000000000000UL, 0x0000000000000000UL,
  0x0000000000000000UL, 0x0000000000000000UL, 0x101d7c0000000000UL, 0x10227c0000000000UL,
  0x34007c0000000000UL, 0x3400042400000002UL, 0x0000000000000064UL, 0x4000000034007c00UL,
  0x0000006434007bc4UL, 0x0080010100000000UL, 0x000000023c007c00UL, 0x000000643c000424UL,
  0x3c007c0000000000UL, 0x3c007bc440000000UL, 0x0000000000000064UL, 0x40007c0000800141UL,
  0x4000042400000002UL, 0x0000000000000064UL, 0x4000000040007c00UL, 0x0000006440007bc4UL,
  0x0080016100000000UL, 0x0000000244007c00UL, 0x0000006444000424UL, 0x44007c0000000000UL,
  0x44007bc440000000UL, 0x0000000000000064UL, 0x48007c0000800181UL, 0x4800042400000002UL,
  0x0000000000000064UL, 0x4000000048007c00UL, 0x0000006448007bc4UL, 0x008001a100000000UL,
  0x0088108258007c00UL, 0x0000006458000424UL, 0x58007c0000000000UL, 0x58007bc440881080UL,
  0x0000000000000064UL, 0x64007c0000800221UL, 0x6400042408000002UL, 0x0000000000000064UL,
  0x4800000064007c00UL, 0x0000006464007bc4UL, 0x0080028100000000UL, 0x0000000214007c00UL,
  0x0000006414000424UL, 0x14007c0000000000UL, 0x14007bc440000000UL, 0x0000000000000064UL,
  0x18007c0000800001UL, 0x1800042400000002UL, 0x0000000000000064UL, 0x4000000018007c00UL,
  0x0000006418007bc4UL, 0x0080002100000000UL, 0x0000000224007c00UL, 0x0000006424000424UL,
  0x24007c0000000000UL, 0x24007bc440000000UL, 0x0000000000000064UL, 0x2c007c0000800081UL,
  0x2c00042400000002UL, 0x0000000000000064UL, 0x400000002c007c00UL, 0x000000642c007bc4UL,
  0x008000c100000000UL, 0x0000000238007c00UL, 0x0000006438000424UL, 0x38007c0000000000UL,
  0x38007bc440000000UL, 0x0000000000000064UL, 0x0000021d00800121UL, 0x34007c0000802101UL,
  0x3402012300080000UL, 0x00280028342f9000UL, 0x00000a0000400001UL, 0x0000004000000001UL,
  0x0000002400019000UL, 0x340c004200100000UL, 0x0000000700000006UL, 0x00000040340d0043UL,
  0x341100433431203fUL, 0x0000000000000000UL, 0x20007c0000802061UL, 0x2002004300080108UL,
  0x00000640342e0000UL, 0x00000000200500c3UL, 0x0000000000000640UL, 0x0000002400000000UL,
  0x200c004200100000UL, 0x0000000700000006UL, 0x00000040200d0043UL, 0x20110043342f903fUL,
  0x0000000000000000UL, 0x0000001110057c00UL, 0x0000000110007c00UL, 0x3400200120002001UL,
  0x0000006420007fe4UL, 0x10007c0000000000UL, 0x1000042400000002UL, 0x0000000000000064UL,
  0x4000000010007c00UL, 0x0000006410007bc4UL, 0x10057c0000000000UL, 0x20007c0000000000UL,
  0x2000042400000002UL, 0x0000000000000064UL, 0x4000000020007c00UL, 0x0000006420007bc4UL,
  0x0080006100000000UL, 0x0000000234007c00UL, 0x0000006434000424UL, 0x34007c0000000000UL,
  0x34007bc440000000UL, 0x0000000000000064UL, 0x0000023d00800101UL, 0x008020810000025dUL,
  0x0008010024007c00UL, 0x342e000024020043UL, 0x240500c300000640UL, 0x0000064000000000UL,
  0x0000000000000000UL, 0x0010000000000024UL, 0x00000006240c0042UL, 0x240d004300000007UL,
  0x342ec83f00000020UL, 0x0000000024110043UL, 0x008020e100000000UL, 0x0008010030007c00UL,
  0x342ec80030020043UL, 0x300500c300000640UL, 0x0000064000000000UL, 0x0000000000000000UL,
  0x0010000000000024UL, 0x00000006300c0042UL, 0x300d004300000007UL, 0x342f903f00000020UL,
  0x0000000030110043UL, 0x0080210100000000UL, 0x0008000834007c00UL, 0x3431200034020123UL,
  0x0020000100280028UL, 0x0000000100000500UL, 0x0000c80000000020UL, 0x0010000000000024UL,
  0x00000006340c0042UL, 0x340d004300000007UL, 0x3431e83f00000020UL, 0x0000000034110043UL,
  0x0080206100000000UL, 0x0008000820007c00UL, 0x3431e80020020123UL, 0x0020000100280028UL,
  0x0000000100000500UL, 0x0000c80000000020UL, 0x0010000000000024UL, 0x00000006200c0042UL,
  0x200d004300000007UL, 0x3432b03f00000020UL, 0x0000000020110043UL, 0x10057c0000000000UL,
  0x100a7c000000000fUL, 0x10007c0000000009UL, 0x2000200100000001UL, 0x2400200134002001UL,
  0x20007fe430002001UL, 0x0000000000000064UL, 0x0000006434007fe4UL, 0x10007c0000000000UL,
  0x1000042400000002UL, 0x0000000000000064UL, 0x4000000010007c00UL, 0x0000006410007bc4UL,
  0x10057c0000000000UL, 0x100a7c0000000000UL, 0x20007c0000000000UL, 0x2000042400000002UL,
  0x0000000000000064UL, 0x4000000020007c00UL, 0x0000006420007bc4UL, 0x0080006100000000UL,
  0x0000000234007c00UL, 0x0000006434000424UL, 0x34007c0000000000UL, 0x34007bc440000000UL,
  0x0000000000000064UL, 0x24007c0000800101UL, 0x2400042400000002UL, 0x0000000000000064UL,
  0x4000000024007c00UL, 0x0000006424007bc4UL, 0x0080008100000000UL, 0x0000000230007c00UL,
  0x0000006430000424UL, 0x30007c0000000000UL, 0x30007bc440000000UL, 0x0000000000000064UL,
  0x0000027d008000e1UL, 0x3c007c0000802141UL, 0x3c0200e300000054UL, 0x0000115504080303UL,
  0x0028014010b74003UL, 0x00270000013f0000UL, 0x3c0a7c0000030010UL, 0x3c0c004300000000UL,
  0x0000000000ffff97UL, 0x40007c0000802161UL, 0x400200e300000040UL, 0x0000115504080303UL,
  0x0028014010b74000UL, 0x00270000013f0000UL, 0x400a7c0000070410UL, 0x400c004300000000UL,
  0x0000000000ffff97UL, 0x44007c0000802181UL, 0x440200e300000040UL, 0x0000115504080303UL,
  0x0028014010b74000UL, 0x00270000013f0000UL, 0x440a7c00000b0810UL, 0x440c004300000000UL,
  0x0000000000ffff97UL, 0x48007c00008021a1UL, 0x480200e300000040UL, 0x0000115504080303UL,
  0x0028014010a34300UL, 0x00270000013f0000UL, 0x480a7c00000f0c10UL, 0x480c004300000000UL,
  0x0000000000ffff97UL, 0x68000042008022a1UL, 0x156000fc08000000UL, 0x0009000068020123UL,
  0x0000000300000000UL, 0x0000c7ff000018ffUL, 0x00000000000043fdUL, 0x00000001078403fdUL,
  0x00000000680c0043UL, 0x680b7c0020422042UL, 0x6900080300000001UL, 0x0000b78600c543fdUL,
  0x000008bc003f43fdUL, 0x0000a0c100e343fdUL, 0x000082d6ffd243fdUL, 0x000060c4000343fdUL,
  0x0000de2a006f43fdUL, 0x0000829b006543fdUL, 0x00006743003e43fdUL, 0x00001fc100cc43fdUL,
  0x00000e6e005243fdUL, 0x000033f4009843fdUL, 0x0000748000f543fdUL, 0x0000bc7c001543fdUL,
  0x00009e1b009443fdUL, 0x00003cee004643fdUL, 0x0000965500ed43fdUL, 0x0000f2ee008c43fdUL,
  0x0000a5e1003b43fdUL, 0x0000dfd8002443fdUL, 0x0000f071004543fdUL, 0x0000aec8008443fdUL,
  0x0000cbf7006843fdUL, 0x000060b1009e43fdUL, 0x0000f689003743fdUL, 0x0000255d00a643fdUL,
  0x0000bca7008743fdUL, 0x00009f9fffd743fdUL, 0x0000422500ab43fdUL, 0x0000a9ba002743fdUL,
  0x00000aab010943fdUL, 0x00009f4f009b43fdUL, 0x0000e0cf005443fdUL, 0x54007c0000802201UL,
  0x540200430174104cUL, 0x0210428f00087f80UL, 0x0000000055000203UL, 0x0000004200000001UL,
  0x0000004c000000c4UL, 0x0000000f0000000eUL, 0x00000018000000d0UL, 0x000000da00000019UL,
  0x0000002300000022UL, 0x000000ec000000e4UL, 0x56000f03000000f4UL, 0x0000f18000000000UL,
  0x0000f18000000000UL, 0x0000adf7a300f800UL, 0x0000f16000000000UL, 0x0000f16000000000UL,
  0x0000f16000000000UL, 0x0000f16000000000UL, 0x0000f16000000000UL, 0x0000f16000000000UL,
  0x0000f16000000000UL, 0x0000f14000000000UL, 0x0000f14000000000UL, 0x0000f14000000000UL,
  0x0000f73510b602d8UL, 0x0000eeeafaefff4aUL, 0x0000efccfe000000UL, 0x0000f04000000000UL,
  0x0000f04000000000UL, 0x0000f04000000000UL, 0x0000f02000000000UL, 0x0000ef20f8000000UL,
  0x0000ef60f8000000UL, 0x0000f00000000000UL, 0x0000f00000000000UL, 0x0000effefeab030cUL,
  0x0000effcfe00038eUL, 0x0000ea8010000000UL, 0x0000ea8010000000UL, 0x0000ea6010000000UL,
  0x0000ea6010000000UL, 0x0000ea6010000000UL, 0x0000ea6010000000UL, 0x0000ea8010000000UL,
  0x0000ea8010000000UL, 0x0000eb4c0b2f014eUL, 0x0000e8ff10df0077UL, 0x0000e30018000000UL,
  0x0000e2e018000000UL, 0x0000e2c018000000UL, 0x0000e2a018000000UL, 0x0000e2a018000000UL,
  0x0000e28018000000UL, 0x0000e26018000000UL, 0x0000ee2010000000UL, 0x0000e22018000000UL,
  0x0000ee6010000000UL, 0x0000e20018000000UL, 0x0000eea010000000UL, 0x0000eec010000000UL,
  0x0000e1a018000000UL, 0x0000ef0010000000UL, 0x0000ef2010000000UL, 0x0000e14018000000UL,
  0x0000e12018000000UL, 0x0000ef8010000000UL, 0x0000efa010000000UL, 0x0000e0c018000000UL,
  0x0000e0a018000000UL, 0x0000e08018000000UL, 0x0000f02010000000UL, 0x1c007c0000802041UL,
  0x1c0201230008c000UL, 0x002800283431e800UL, 0x0000050000200008UL, 0x0000000100000020UL,
  0x0000002400000000UL, 0x1c0c004200100000UL, 0x0000000700000006UL, 0x000000081c0d0043UL,
  0x1c1100433432b03fUL, 0x0000000000000000UL, 0x34007c0000802101UL, 0x340200430008c184UL,
  0x0000240071f31f00UL, 0x00000000340500c3UL, 0x0000000000000000UL, 0x0000002400000000UL,
  0x340c004200100000UL, 0x0000000700000006UL, 0x00000001340d0043UL, 0x3411004371f3433fUL,
  0x0000000800000000UL, 0x14007c0000802001UL, 0x140201230008c000UL, 0x002800283431e808UL,
  0x0000050000200008UL, 0x0000000100000020UL, 0x0000002400000000UL, 0x140c004200100000UL,
  0x0000000700000006UL, 0x00000008140d0043UL, 0x141100433432b03fUL, 0x0000000000000000UL,
  0x2c007c00008020c1UL, 0x2c0201230008c000UL, 0x002800283431e810UL, 0x0000050000200008UL,
  0x0000000100000020UL, 0x0000002400000000UL, 0x2c0c004200100000UL, 0x0000000700000006UL,
  0x000000082c0d0043UL, 0x2c1100433432b03fUL, 0x0000000000000000UL, 0x38007c0000802121UL,
  0x380201230008c000UL, 0x002800283431e818UL, 0x0000050000200008UL, 0x0000000100000020UL,
  0x0000002400000000UL, 0x380c004200100000UL, 0x0000000700000006UL, 0x00000008380d0043UL,
  0x381100433432b03fUL, 0x0000000000000000UL, 0x20007c0000802061UL, 0x2002012300080008UL,
  0x00280028342f9000UL, 0x0000050000200004UL, 0x0000000800000004UL, 0x000000240000c800UL,
  0x200c004200100000UL, 0x0000000700000006UL, 0x00000008200d0043UL, 0x201100433430583fUL,
  0x0000000000000000UL, 0x0000002110057c00UL, 0x00000005100c0043UL, 0x100f012300000011UL,
  0x0000001100000001UL, 0x0000000d00000015UL, 0x0000001700000011UL, 0x0000001100000013UL,
  0x101c7c0000000019UL, 0x10247c000000002bUL, 0x10007c000000001bUL, 0x2000200100000001UL,
  0x000000553c007c00UL, 0x0000004140007c00UL, 0x0000004144007c00UL, 0x0000004148007c00UL,
  0x6800200154002001UL, 0x1c00200114002001UL, 0x340020012c002001UL, 0x20007fe438002001UL,
  0x0000000000000064UL, 0x0000000210007c00UL, 0x0000006410000424UL, 0x10007c0000000000UL,
  0x10007bc440000000UL, 0x0000000000000064UL, 0x0000000010057c00UL, 0x00000000100c0043UL,
  0x100f012300000000UL, 0x0000000000000000UL, 0x0000000000000000UL, 0x0000000000000000UL,
  0x0000000000000000UL, 0x101c7c0000000000UL, 0x10247c0000000000UL, 0x20007c0000000000UL,
  0x2000042400000002UL, 0x0000000000000064UL, 0x4000000020007c00UL, 0x0000006420007bc4UL,
  0x0080006100000000UL, 0x000000023c007c00UL, 0x000000643c000424UL, 0x3c007c0000000000UL,
  0x3c007bc440000000UL, 0x0000000000000064UL, 0x40007c0000800141UL, 0x4000042400000002UL,
  0x0000000000000064UL, 0x4000000040007c00UL, 0x0000006440007bc4UL, 0x0080016100000000UL,
  0x0000000244007c00UL, 0x0000006444000424UL, 0x44007c0000000000UL, 0x44007bc440000000UL,
  0x0000000000000064UL, 0x48007c0000800181UL, 0x4800042400000002UL, 0x0000000000000064UL,
  0x4000000048007c00UL, 0x0000006448007bc4UL, 0x008001a100000000UL, 0x0088108254007c00UL,
  0x0000006454000424UL, 0x54007c0000000000UL, 0x54007bc440881080UL, 0x0000000000000064UL,
  0x68007c0000800201UL, 0x6800042408000002UL, 0x0000000000000064UL, 0x4800000068007c00UL,
  0x0000006468007bc4UL, 0x008002a100000000UL, 0x0000000214007c00UL, 0x0000006414000424UL,
  0x14007c0000000000UL, 0x14007bc440000000UL, 0x0000000000000064UL, 0x1c007c0000800001UL,
  0x1c00042400000002UL, 0x0000000000000064UL, 0x400000001c007c00UL, 0x000000641c007bc4UL,
  0x0080004100000000UL, 0x000000022c007c00UL, 0x000000642c000424UL, 0x2c007c0000000000UL,
  0x2c007bc440000000UL, 0x0000000000000064UL, 0x34007c00008000c1UL, 0x3400042400000002UL,
  0x0000000000000064UL, 0x4000000034007c00UL, 0x0000006434007bc4UL, 0x0080010100000000UL,
  0x0000000238007c00UL, 0x0000006438000424UL, 0x38007c0000000000UL, 0x38007bc440000000UL,
  0x0000000000000064UL, 0x0000029d00800121UL, 0x3c007c0000802141UL, 0x3c0200e300000054UL,
  0x0000115504080303UL, 0x0028014010b74004UL, 0x00270000013f0000UL, 0x3c0a7c0000030010UL,
  0x3c0c004300000000UL, 0x0000000000ffff8cUL, 0x40007c0000802161UL, 0x400200e300000040UL,
  0x0000115504080303UL, 0x0028014010b74000UL, 0x00270000013f0000UL, 0x400a7c0000070410UL,
  0x400c004300000000UL, 0x0000000000ffff8cUL, 0x44007c0000802181UL, 0x440200e300000040UL,
  0x0000115504080303UL, 0x0028014010b74000UL, 0x00270000013f0000UL, 0x440a7c00000b0810UL,
  0x440c004300000000UL, 0x0000000000ffff8cUL, 0x48007c00008021a1UL, 0x480200e300000040UL,
  0x0000115504080303UL, 0x0028014010a34400UL, 0x00270000013f0000UL, 0x480a7c00000f0c10UL,
  0x480c004300000000UL, 0x0000000000ffff8cUL, 0x5c00004200802241UL, 0x156000fc08000000UL,
  0x000900005c020123UL, 0x0000000300000000UL, 0x0000c7ff000018ffUL, 0x000000000000441eUL,
  0x00000001078403fdUL, 0x000000005c0c0043UL, 0x5c0b7c0020422042UL, 0x5d00080300000001UL,
  0x00009a5e00b3441eUL, 0x0000d56600f1441eUL, 0x0000703b0066441eUL, 0x0000fa6a0081441eUL,
  0x0000c05600ac441eUL, 0x0000347d0057441eUL, 0x0000a5d000bd441eUL, 0x0000e713009c441eUL,
  0x00009bc80055441eUL, 0x0000e44800a1441eUL, 0x00009cf60079441eUL, 0x00008eb700b1441eUL,
  0x0000ef51007e441eUL, 0x0000a789011d441eUL, 0x00008bff009f441eUL, 0x0000d86a00a7441eUL,
  0x0000ff710078441eUL, 0x0000a0530036441eUL, 0x00005d2a009f441eUL, 0x00005c1f008a441eUL,
  0x0000298400a0441eUL, 0x00002b7700bb441eUL, 0x00003c950067441eUL, 0x00007fab0015441eUL,
  0x00007e870091441eUL, 0x0000ddab0059441eUL, 0x0000062100aa441eUL, 0x000075a40104441eUL,
  0x000081680038441eUL, 0x00003b1e0062441eUL, 0x0000c6b10099441eUL, 0x000069410054441eUL,
  0x58007c0000802221UL, 0x580200430174104cUL, 0x0010220f00087f80UL, 0x0000008059007c00UL,
  0x005300085a000103UL, 0xf9b7ffe80000ca02UL, 0xf92d02700000c56eUL, 0x481effd50000c5d1UL,
  0x0080202100009fbdUL, 0x0008c00018007c00UL, 0x342f900018020123UL, 0x0020000800280028UL,
  0x0000002000000500UL, 0x0000000000000001UL, 0x0010000000000024UL, 0x00000006180c0042UL,
  0x180d004300000007UL, 0x3430583f00000008UL, 0x0000000018110043UL, 0x008020c100000000UL,
  0x0008c1842c007c00UL, 0x71f343002c020043UL, 0x2c0500c300002400UL, 0x0000000000000000UL,
  0x0000000000000000UL, 0x0010000000000024UL, 0x000000062c0c0042UL, 0x2c0d004300000007UL,
  0x71f3673f00000001UL, 0x000000002c110043UL, 0x0080200100000008UL, 0x0008c00014007c00UL,
  0x342f900814020123UL, 0x0020000800280028UL, 0x0000002000000500UL, 0x0000000000000001UL,
  0x0010000000000024UL, 0x00000006140c0042UL, 0x140d004300000007UL, 0x3430583f00000008UL,
  0x0000000014110043UL, 0x0080212100000000UL, 0x0008c00038007c00UL, 0x342f901038020123UL,
  0x0020000800280028UL, 0x0000002000000500UL, 0x0000000000000001UL, 0x0010000000000024UL,
  0x00000006380c0042UL, 0x380d004300000007UL, 0x3430583f00000008UL, 0x0000000038110043UL,
  0x008020a100000000UL, 0x0008c00028007c00UL, 0x342f901828020123UL, 0x0020000800280028UL,
  0x0000002000000500UL, 0x0000000000000001UL, 0x0010000000000024UL, 0x00000006280c0042UL,
  0x280d004300000007UL, 0x3430583f00000008UL, 0x0000000028110043UL, 0x0080208100000000UL,
  0x0008000824007c00UL, 0x3430580024020123UL, 0x0020000400280028UL, 0x0000000400000500UL,
  0x0000c80000000008UL, 0x0010000000000024UL, 0x00000006240c0042UL, 0x240d004300000007UL,
  0x3431203f00000008UL, 0x0000000024110043UL, 0x10067c0000000000UL, 0x100c004300000023UL,
  0x0000000d00000003UL, 0x00000001100f0123UL, 0x000000150000000dUL, 0x0000000d00000013UL,
  0x0000000b00000017UL, 0x000000190000000dUL, 0x00000025101d0043UL, 0x10007c000000001bUL,
  0x2400200100000001UL, 0x000000553c007c00UL, 0x0000004140007c00UL, 0x0000004144007c00UL,
  0x0000004148007c00UL, 0x5c00200158002001UL, 0x1800200114002001UL, 0x2c00200128002001UL,
  0x24007fe438002001UL, 0x0000000000000064UL, 0x0000000210007c00UL, 0x0000006410000424UL,
  0x10007c0000000000UL, 0x10007bc440000000UL, 0x0000000000000064UL, 0x0000000010067c00UL,
  0x00000000100c0043UL, 0x100f012300000000UL, 0x0000000000000000UL, 0x0000000000000000UL,
  0x0000000000000000UL, 0x0000000000000000UL, 0x101d004300000000UL, 0x0000000000000000UL,
  0x0000000224007c00UL, 0x0000006424000424UL, 0x24007c0000000000UL, 0x24007bc440000000UL,
  0x0000000000000064UL, 0x3c007c0000800081UL, 0x3c00042400000002UL, 0x0000000000000064UL,
  0x400000003c007c00UL, 0x000000643c007bc4UL, 0x0080014100000000UL, 0x0000000240007c00UL,
  0x0000006440000424UL, 0x40007c0000000000UL, 0x40007bc440000000UL, 0x0000000000000064UL,
  0x44007c0000800161UL, 0x4400042400000002UL, 0x0000000000000064UL, 0x4000000044007c00UL,
  0x0000006444007bc4UL, 0x0080018100000000UL, 0x0000000248007c00UL, 0x0000006448000424UL,
  0x48007c0000000000UL, 0x48007bc440000000UL, 0x0000000000000064UL, 0x58007c00008001a1UL,
  0x5800042400881082UL, 0x0000000000000064UL, 0x4088108058007c00UL, 0x0000006458007bc4UL,
  0x0080022100000000UL, 0x080000025c007c00UL, 0x000000645c000424UL, 0x5c007c0000000000UL,
  0x5c007bc448000000UL, 0x0000000000000064UL, 0x14007c0000800241UL, 0x1400042400000002UL,
  0x0000000000000064UL, 0x4000000014007c00UL, 0x0000006414007bc4UL, 0x0080000100000000UL,
  0x0000000218007c00UL, 0x0000006418000424UL, 0x18007c0000000000UL, 0x18007bc440000000UL,
  0x0000000000000064UL, 0x28007c0000800021UL, 0x2800042400000002UL, 0x0000000000000064UL,
  0x4000000028007c00UL, 0x0000006428007bc4UL, 0x008000a100000000UL, 0x000000022c007c00UL,
  0x000000642c000424UL, 0x2c007c0000000000UL, 0x2c007bc440000000UL, 0x0000000000000064UL,
  0x38007c00008000c1UL, 0x3800042400000002UL, 0x0000000000000064UL, 0x4000000038007c00UL,
  0x0000006438007bc4UL, 0x0080012100000000UL, 0x00802261000002bdUL, 0x0800000060000042UL,
  0x60027c0005000160UL, 0x6007004300071820UL, 0x00005b024b5e4000UL, 0x00000000600c0043UL,
  0x008020a110411041UL, 0x0008010028007c00UL, 0x342ec80028020043UL, 0x280500c300000640UL,
  0x0000064000000000UL, 0x0000000000000000UL, 0x0010000000000024UL, 0x00000006280c0042UL,
  0x280d004300000007UL, 0x342f903f00000020UL, 0x0000000028110043UL, 0x0080204100000000UL,
  0x000800001c007c00UL, 0x343058001c020123UL, 0x0020000100280028UL, 0x0000000100000500UL,
  0x0000c80000000020UL, 0x0010000000000024UL, 0x000000061c0c0042UL, 0x1c0d004300000007UL,
  0x3431203f00000020UL, 0x000000001c110043UL, 0x0080206100000000UL, 0x0008000820007c00UL,
  0x3432b00020020123UL, 0x0020000100280028UL, 0x0000000100000500UL, 0x0000c80000000020UL,
  0x0010000000000024UL, 0x00000006200c0042UL, 0x200d004300000007UL, 0x3433783f00000020UL,
  0x0000000020110043UL, 0x10057c0000000000UL, 0x1020004300000027UL, 0x000000050000000bUL,
  0x0000000110007c00UL, 0x6000200120002001UL, 0x280020011c002001UL, 0x0000006420007fe4UL,
  0x10007c0000000000UL, 0x1000042400000002UL, 0x0000000000000064UL, 0x4000000010007c00UL,
  0x0000006410007bc4UL, 0x10057c0000000000UL, 0x1020004300000000UL, 0x0000000000000000UL,
  0x0000000220007c00UL, 0x0000006420000424UL, 0x20007c0000000000UL, 0x20007bc440000000UL,
  0x0000000000000064UL, 0x60007c0000800061UL, 0x6000042408000002UL, 0x0000000000000064UL,
  0x4800000060007c00UL, 0x0000006460007bc4UL, 0x0080026100000000UL, 0x000000021c007c00UL,
  0x000000641c000424UL, 0x1c007c0000000000UL, 0x1c007bc440000000UL, 0x0000000000000064UL,
  0x28007c0000800041UL, 0x2800042400000002UL, 0x0000000000000064UL, 0x4000000028007c00UL,
  0x0000006428007bc4UL, 0x008000a100000000UL, 0x00802141000002ddUL, 0x000000543c007c00UL,
  0x040803033c0200e3UL, 0x10b7400300001155UL, 0x013f000000280140UL, 0x0003001000270000UL,
  0x000000003c0a7c00UL, 0x00ffff973c0c0043UL, 0x0080216100000000UL, 0x0000004040007c00UL,
  0x04080303400200e3UL, 0x10b7400000001155UL, 0x013f000000280140UL, 0x0007041000270000UL,
  0x00000000400a7c00UL, 0x00ffff97400c0043UL, 0x0080218100000000UL, 0x0000004044007c00UL,
  0x04080303440200e3UL, 0x10b7400000001155UL, 0x013f000000280140UL, 0x000b081000270000UL,
  0x00000000440a7c00UL, 0x00ffff97440c0043UL, 0x008021a100000000UL, 0x0000004048007c00UL,
  0x04080303480200e3UL, 0x10a3430000001155UL, 0x013f000000280140UL, 0x000f0c1000270000UL,
  0x00000000480a7c00UL, 0x00ffff97480c0043UL, 0x0080228100000000UL, 0x0800000064000042UL,
  0x64020123156000fcUL, 0x0000000000098000UL, 0x000018ff00000003UL, 0x00004ac30000c7ffUL,
  0x078403fd00000000UL, 0x640c004300000001UL, 0x2042204200000000UL, 0x00000001640b7c00UL,
  0x03064ac365000803UL, 0x012f4ac30000ac5dUL, 0x006d4ac3000026deUL, 0xffbd4ac300009246UL,
  0x00ef4ac30000a8abUL, 0x00974ac3000073d3UL, 0x010b4ac300008d0aUL, 0xffed4ac300007372UL,
  0x01844ac300008d53UL, 0x01514ac30000efa4UL, 0x00044ac300002312UL, 0x00634ac30000e0c9UL,
  0x01284ac300007f0dUL, 0x00054ac30000fb8fUL, 0x01114ac30000639dUL, 0x00224ac300002544UL,
  0x00654ac300008e47UL, 0x01044ac300002cecUL, 0x00e44ac300008d3dUL, 0x00df4ac3000022dfUL,
  0x01904ac30000b820UL, 0x01344ac3000049f0UL, 0x01714ac30000cf58UL, 0x01414ac30000a97aUL,
  0x00cd4ac300009f71UL, 0x008c4ac3000080f7UL, 0x007b4ac30000200dUL, 0x00134ac30000e185UL,
  0x01224ac300007acbUL, 0xff534ac30000bd90UL, 0x00a84ac300007809UL, 0x01584ac30000b531UL,
  0x00802201000066baUL, 0x0174104c54007c00UL, 0x00087f8054020043UL, 0x550002030210528fUL,
  0x0000004100000000UL, 0x0000004400000003UL, 0x0000000700000006UL, 0x0000000900000008UL,
  0x0000000b0000000aUL, 0x0000000d0000000cUL, 0x0000000f0000000eUL, 0x000000d100000010UL,
  0xe96efcf456000643UL, 0x249f05b00000c881UL, 0x43ab0aab00002cd4UL, 0x0b00020000005d48UL,
  0xff33000000000104UL, 0x165505550000efdaUL, 0xff550000000008eeUL, 0x008000890000f020UL,
  0x016201860000f0a2UL, 0xffd4009c0000f081UL, 0x004a02010000eff1UL, 0xff8e02d80000f00fUL,
  0xff25030c0000f048UL, 0xffab02ab0000f084UL, 0x086a00750000f0a5UL, 0x040a01480000e7eeUL,
  0x07a300820000edbcUL, 0x0c0000000000e9ceUL, 0x0c0000000000e0c0UL, 0x080000000000e0a0UL,
  0x0c0000000000ef20UL, 0x0c0000000000e080UL, 0x080000000000e060UL, 0x0c0000000000efa0UL,
  0x080000000000e040UL, 0x008021010000f000UL, 0x0008c00034007c00UL, 0x3432b00034020123UL,
  0x0020000800280028UL, 0x0000002000000500UL, 0x0000000000000001UL, 0x0010000000000024UL,
  0x00000006340c0042UL, 0x340d004300000007UL, 0x3433783f00000008UL, 0x0000000034110043UL,
  0x0080202100000000UL, 0x0008c18418007c00UL, 0x71f3670018020043UL, 0x180500c300002400UL,
  0x0000000000000000UL, 0x0000000000000000UL, 0x0010000000000024UL, 0x00000006180c0042UL,
  0x180d004300000007UL, 0x71f38b3f00000001UL, 0x0000000018110043UL, 0x0080200100000008UL,
  0x0008c00014007c00UL, 0x3432b00814020123UL, 0x0020000800280028UL, 0x0000002000000500UL,
  0x0000000000000001UL, 0x0010000000000024UL, 0x00000006140c0042UL, 0x140d004300000007UL,
  0x3433783f00000008UL, 0x0000000014110043UL, 0x008020a100000000UL, 0x0008c00028007c00UL,
  0x3432b01028020123UL, 0x0020000800280028UL, 0x0000002000000500UL, 0x0000000000000001UL,
  0x0010000000000024UL, 0x00000006280c0042UL, 0x280d004300000007UL, 0x3433783f00000008UL,
  0x0000000028110043UL, 0x0080206100000000UL, 0x0008c00020007c00UL, 0x3432b01820020123UL,
  0x0020000800280028UL, 0x0000002000000500UL, 0x0000000000000001UL, 0x0010000000000024UL,
  0x00000006200c0042UL, 0x200d004300000007UL, 0x3433783f00000008UL, 0x0000000020110043UL,
  0x008020c100000000UL, 0x000800082c007c00UL, 0x342e00002c020123UL, 0x0020000400280028UL,
  0x0000000400000500UL, 0x0000c80000000008UL, 0x0010000000000024UL, 0x000000062c0c0042UL,
  0x2c0d004300000007UL, 0x342ec83f00000008UL, 0x000000002c110043UL, 0x10087c0000000000UL,
  0x100c004300000021UL, 0x0000000300000011UL, 0x00000001100f0123UL, 0x0000001500000003UL,
  0x000000030000000bUL, 0x0000000700000017UL, 0x0000001900000003UL, 0x00000029101c7c00UL,
  0x0000001b10227c00UL, 0x0000000110007c00UL, 0x3c007c002c002001UL, 0x40007c0000000055UL,
  0x44007c0000000041UL, 0x48007c0000000041UL, 0x5400200100000041UL, 0x1400200164002001UL,
  0x2000200118002001UL, 0x3400200128002001UL, 0x000000642c007fe4UL, 0x10007c0000000000UL,
  0x1000042400000002UL, 0x0000000000000064UL, 0x4000000010007c00UL, 0x0000006410007bc4UL,
  0x10087c0000000000UL, 0x100c004300000000UL, 0x0000000000000000UL, 0x00000000100f0123UL,
  0x0000000000000000UL, 0x0000000000000000UL, 0x0000000000000000UL, 0x0000000000000000UL,
  0x00000000101c7c00UL, 0x0000000010227c00UL, 0x000000022c007c00UL, 0x000000642c000424UL,
  0x2c007c0000000000UL, 0x2c007bc440000000UL, 0x0000000000000064UL, 0x3c007c00008000c1UL,
  0x3c00042400000002UL, 0x0000000000000064UL, 0x400000003c007c00UL, 0x000000643c007bc4UL,
  0x0080014100000000UL, 0x0000000240007c00UL, 0x0000006440000424UL, 0x40007c0000000000UL,
  0x40007bc440000000UL, 0x0000000000000064UL, 0x44007c0000800161UL, 0x4400042400000002UL,
  0x0000000000000064UL, 0x4000000044007c00UL, 0x0000006444007bc4UL, 0x0080018100000000UL,
  0x0000000248007c00UL, 0x0000006448000424UL, 0x48007c0000000000UL, 0x48007bc440000000UL,
  0x0000000000000064UL, 0x54007c00008001a1UL, 0x5400042400881082UL, 0x0000000000000064UL,
  0x4088108054007c00UL, 0x0000006454007bc4UL, 0x0080020100000000UL, 0x0800000264007c00UL,
  0x0000006464000424UL, 0x64007c0000000000UL, 0x64007bc448000000UL, 0x0000000000000064UL,
  0x14007c0000800281UL, 0x1400042400000002UL, 0x0000000000000064UL, 0x4000000014007c00UL,
  0x0000006414007bc4UL, 0x0080000100000000UL, 0x0000000218007c00UL, 0x0000006418000424UL,
  0x18007c0000000000UL, 0x18007bc440000000UL, 0x0000000000000064UL, 0x20007c0000800021UL,
  0x2000042400000002UL, 0x0000000000000064UL, 0x4000000020007c00UL, 0x0000006420007bc4UL,
  0x0080006100000000UL, 0x0000000228007c00UL, 0x0000006428000424UL, 0x28007c0000000000UL,
  0x28007bc440000000UL, 0x0000000000000064UL, 0x34007c00008000a1UL, 0x3400042400000002UL,
  0x0000000000000064UL, 0x4000000034007c00UL, 0x0000006434007bc4UL, 0x0080010100000000UL,
  0x00802141000002fdUL, 0x000000543c007c00UL, 0x040803033c0200e3UL, 0x10b7400300001155UL,
  0x013f000000280140UL, 0x0003001000270000UL, 0x000000003c0a7c00UL, 0x00ffff933c0c0043UL,
  0x0080216100000000UL, 0x0000004040007c00UL, 0x04080303400200e3UL, 0x10b7400000001155UL,
  0x013f000000280140UL, 0x0007041000270000UL, 0x00000000400a7c00UL, 0x00ffff93400c0043UL,
  0x0080218100000000UL, 0x0000004044007c00UL, 0x04080303440200e3UL, 0x10b7400000001155UL,
  0x013f000000280140UL, 0x000b081000270000UL, 0x00000000440a7c00UL, 0x00ffff93440c0043UL,
  0x008021a100000000UL, 0x0000004048007c00UL, 0x04080303480200e3UL, 0x10a3430000001155UL,
  0x013f000000280140UL, 0x000f0c1000270000UL, 0x00000000480a7c00UL, 0x00ffff93480c0043UL,
  0x008022a100000000UL, 0x0800000068000042UL, 0x68020123156000fcUL, 0x0000000000098000UL,
  0x000018ff00000003UL, 0x0000451f0000c7ffUL, 0x078403fd00000000UL, 0x680c004300000001UL,
  0x2042204200000000UL, 0x00000001680b7c00UL, 0xff4d451f69000803UL, 0x0101451f0000d86eUL,
  0x00a0451f0000d44eUL, 0xffc5451f00003958UL, 0x002f451f0000e502UL, 0x0047451f00007703UL,
  0xffca451f0000cc79UL, 0x005b451f00007369UL, 0x013d451f0000e14aUL, 0x0026451f00008883UL,
  0xfee1451f000003ceUL, 0x0038451f00006805UL, 0x01a1451f0000828aUL, 0xff3d451f0000d6acUL,
  0x0033451f00006018UL, 0xff0e451f00000237UL, 0xffb8451f0000a1a8UL, 0xff3c451f000005f4UL,
  0x000b451f0000b34cUL, 0x00f0451f0000379fUL, 0xfe8f451f00005021UL, 0xff34451f00007eadUL,
  0x0115451f00006e7dUL, 0x0056451f0000e07aUL, 0xfe25451f0000c001UL, 0x003b451f0000ecacUL,
  0x015c451f00006995UL, 0x0088451f0000f460UL, 0xfe30451f0000c486UL, 0xfef1451f00000caeUL,
  0x0156451f00004d7aUL, 0xffda451f00001a74UL, 0x008022210000fd06UL, 0x0174104c58007c00UL,
  0x00087f8058020043UL, 0x590002030210324fUL, 0x0000000100000000UL, 0x0000000300000002UL,
  0x0000000c000000c4UL, 0x00000015000000cdUL, 0x0000001700000016UL, 0x000000d900000018UL,
  0x0000006200000021UL, 0x0000006600000064UL, 0x000000005a000a03UL, 0x000000000000e5c0UL,
  0x0b81009c0000e5c0UL, 0x000000000000ec25UL, 0x000000000000e580UL, 0x000000000000e580UL,
  0x000000000000e580UL, 0x000000000000e580UL, 0x000000000000e540UL, 0x000000000000e540UL,
  0x000000000000e540UL, 0x000000000000e540UL, 0xf91cff8e0000e540UL, 0x000000000000e1f1UL,
  0x000000000000e480UL, 0x000000000000e480UL, 0x000000000000e440UL, 0x000000000000e440UL,
  0x000000000000e440UL, 0x000000000000e400UL, 0x000000000000e400UL, 0x04e401c70000e400UL,
  0x05b7030c0000e440UL, 0x0bbc02220000e43eUL, 0x1d5500000000e32aUL, 0x200000000000de85UL,
  0x200000000000dc80UL, 0x100000000000dc80UL, 0x200000000000e980UL, 0x200000000000dc40UL,
  0x200000000000dc40UL, 0x200000000000dc40UL, 0x200000000000dc40UL, 0x2509ff870000dc00UL,
  0x1ccd00000000dac8UL, 0x1ccd00000000df33UL, 0x1aab00000000df1aUL, 0x5511fdde0000e255UL,
  0x1aab00000000b076UL, 0x1aab00000000e26bUL, 0x008020210000e280UL, 0x0008c00018007c00UL,
  0x342e000018020123UL, 0x0020000800280028UL, 0x0000002000000500UL, 0x0000000000000001UL,
  0x0010000000000024UL, 0x00000006180c0042UL, 0x180d004300000007UL, 0x342ec83f00000008UL,
  0x0000000018110043UL, 0x008020c100000000UL, 0x0008c1842c007c00UL, 0x71f38b002c020043UL,
  0x2c0500c300002400UL, 0x0000000000000000UL, 0x0000000000000000UL, 0x0010000000000024UL,
  0x000000062c0c0042UL, 0x2c0d004300000007UL, 0x71f3af3f00000001UL, 0x000000002c110043UL,
  0x0080208100000008UL, 0x0008c00024007c00UL, 0x342e000824020123UL, 0x0020000800280028UL,
  0x0000002000000500UL, 0x0000000000000001UL, 0x0010000000000024UL, 0x00000006240c0042UL,
  0x240d004300000007UL, 0x342ec83f00000008UL, 0x0000000024110043UL, 0x0080212100000000UL,
  0x0008c00038007c00UL, 0x342e001038020123UL, 0x0020000800280028UL, 0x0000002000000500UL,
  0x0000000000000001UL, 0x0010000000000024UL, 0x00000006380c0042UL, 0x380d004300000007UL,
  0x342ec83f00000008UL, 0x0000000038110043UL, 0x008020a100000000UL, 0x0008c00028007c00UL,
  0x342e001828020123UL, 0x0020000800280028UL, 0x0000002000000500UL, 0x0000000000000001UL,
  0x0010000000000024UL, 0x00000006280c0042UL, 0x280d004300000007UL, 0x342ec83f00000008UL,
  0x0000000028110043UL, 0x0080200100000000UL, 0x0008000814007c00UL, 0x342ec80014020123UL,
  0x0020000400280028UL, 0x0000000400000500UL, 0x0000c80000000008UL, 0x0010000000000024UL,
  0x00000006140c0042UL, 0x140d004300000007UL, 0x342f903f00000008UL, 0x0000000014110043UL,
  0x10027c0000000000UL, 0x100c004300000023UL, 0x0000000d00000003UL, 0x00000009100f0123UL,
  0x000000150000000dUL, 0x0000000d00000013UL, 0x0000000b00000017UL, 0x000000190000000dUL,
  0x0000002b101d7c00UL, 0x0000001b10247c00UL, 0x0000000110007c00UL, 0x3c007c0014002001UL,
  0x40007c0000000055UL, 0x44007c0000000041UL, 0x48007c0000000041UL, 0x5800200100000041UL,
  0x1800200168002001UL, 0x2800200124002001UL, 0x380020012c002001UL, 0x0000006414007fe4UL,
  0x10007c0000000000UL, 0x1000042400000002UL, 0x0000000000000064UL, 0x4000000010007c00UL,
  0x0000006410007bc4UL, 0x10027c0000000000UL, 0x100c004300000000UL, 0x0000000000000000UL,
  0x00000000100f0123UL, 0x0000000000000000UL, 0x0000000000000000UL, 0x0000000000000000UL,
  0x0000000000000000UL, 0x00000000101d7c00UL, 0x0000000010247c00UL, 0x0000000214007c00UL,
  0x0000006414000424UL, 0x14007c0000000000UL, 0x14007bc440000000UL, 0x0000000000000064UL,
  0x3c007c0000800001UL, 0x3c00042400000002UL, 0x0000000000000064UL, 0x400000003c007c00UL,
  0x000000643c007bc4UL, 0x0080014100000000UL, 0x0000000240007c00UL, 0x0000006440000424UL,
  0x40007c0000000000UL, 0x40007bc440000000UL, 0x0000000000000064UL, 0x44007c0000800161UL,
  0x4400042400000002UL, 0x0000000000000064UL, 0x4000000044007c00UL, 0x0000006444007bc4UL,
  0x0080018100000000UL, 0x0000000248007c00UL, 0x0000006448000424UL, 0x48007c0000000000UL,
  0x48007bc440000000UL, 0x0000000000000064UL, 0x58007c00008001a1UL, 0x5800042400881082UL,
  0x0000000000000064UL, 0x4088108058007c00UL, 0x0000006458007bc4UL, 0x0080022100000000UL,
  0x0800000268007c00UL, 0x0000006468000424UL, 0x68007c0000000000UL, 0x68007bc448000000UL,
  0x0000000000000064UL, 0x18007c00008002a1UL, 0x1800042400000002UL, 0x0000000000000064UL,
  0x4000000018007c00UL, 0x0000006418007bc4UL, 0x0080002100000000UL, 0x0000000224007c00UL,
  0x0000006424000424UL, 0x24007c0000000000UL, 0x24007bc440000000UL, 0x0000000000000064UL,
  0x28007c0000800081UL, 0x2800042400000002UL, 0x0000000000000064UL, 0x4000000028007c00UL,
  0x0000006428007bc4UL, 0x008000a100000000UL, 0x000000022c007c00UL, 0x000000642c000424UL,
  0x2c007c0000000000UL, 0x2c007bc440000000UL, 0x0000000000000064UL, 0x38007c00008000c1UL,
  0x3800042400000002UL, 0x0000000000000064UL, 0x4000000038007c00UL, 0x0000006438007bc4UL,
  0x0080012100000000UL, 0x008022410000031dUL, 0x080000005c000042UL, 0x5c027c0005000160UL,
  0x5c07004300071800UL, 0x0000400069004000UL, 0x000000005c0c0043UL, 0x0080204110411041UL,
  0x000800001c007c00UL, 0x3432b0001c020123UL, 0x0020000100280028UL, 0x0000000100000500UL,
  0x0000c80000000020UL, 0x0010000000000024UL, 0x000000061c0c0042UL, 0x1c0d004300000007UL,
  0x3433783f00000020UL, 0x000000001c110043UL, 0x0080202100000000UL, 0x0008000018007c00UL,
  0x342ec80018020123UL, 0x0020000100280028UL, 0x0000000100000500UL, 0x0000c80000000020UL,
  0x0010000000000024UL, 0x00000006180c0042UL, 0x180d004300000007UL, 0x342f903f00000020UL,
  0x0000000018110043UL, 0x0080210100000000UL, 0x0008000834007c00UL, 0x3433780034020123UL,
  0x0020000100280028UL, 0x0000000100000500UL, 0x0000c80000000020UL, 0x0010000000000024UL,
  0x00000006340c0042UL, 0x340d004300000007UL, 0x3434403f00000020UL, 0x0000000034110043UL,
  0x100a7c0000000000UL, 0x101e004300000025UL, 0x0000000300000005UL, 0x0000000110007c00UL,
  0x5c00200134002001UL, 0x1c00200118002001UL, 0x0000006434007fe4UL, 0x10007c0000000000UL,
  0x1000042400000002UL, 0x0000000000000064UL, 0x4000000010007c00UL, 0x0000006410007bc4UL,
  0x100a7c0000000000UL, 0x101e004300000000UL, 0x0000000000000000UL, 0x0000000234007c00UL,
  0x0000006434000424UL, 0x34007c0000000000UL, 0x34007bc440000000UL, 0x0000000000000064UL,
  0x5c007c0000800101UL, 0x5c00042408000002UL, 0x0000000000000064UL, 0x480000005c007c00UL,
  0x000000645c007bc4UL, 0x0080024100000000UL, 0x0000000218007c00UL, 0x0000006418000424UL,
  0x18007c0000000000UL, 0x18007bc440000000UL, 0x0000000000000064UL, 0x1c007c0000800021UL,
  0x1c00042400000002UL, 0x0000000000000064UL, 0x400000001c007c00UL, 0x000000641c007bc4UL,
  0x0080004100000000UL, 0x008020a10000033dUL, 0x0088010028007c00UL, 0x3431200028020043UL,
  0x280500c300006400UL, 0x0000c80000000000UL, 0x0000000000000000UL, 0x0010000000000024UL,
  0x00000006280c0042UL, 0x280d004300000007UL, 0x3434403f00000004UL, 0x0000000028110043UL,
  0x0080200100000000UL, 0x0088000814007c00UL, 0x342e000014020123UL, 0x0080001000280028UL,
  0x0000002000001400UL, 0x0003200000000004UL, 0x0010000000000024UL, 0x00000006140c0042UL,
  0x140d004300000007UL, 0x3431203f00000004UL, 0x0000000014110043UL, 0x10027c0000000000UL,
  0x10007c000000000bUL, 0x1400200100000001UL, 0x14007fe428002001UL, 0x0000000000000064UL,
  0x0000000210007c00UL, 0x0000006410000424UL, 0x10007c0000000000UL, 0x10007bc440000000UL,
  0x0000000000000064UL, 0x0000000010027c00UL, 0x0000000214007c00UL, 0x0000006414000424UL,
  0x14007c0000000000UL, 0x14007bc440000000UL, 0x0000000000000064UL, 0x28007c0000800001UL,
  0x2800042400000002UL, 0x0000000000000064UL, 0x4000000028007c00UL, 0x0000006428007bc4UL,
  0x008000a100000000UL, 0x008021410000035dUL, 0x000003503c007c00UL, 0x101001013c020123UL,
  0x10b7400300001100UL, 0x027f000000280280UL, 0x000f004000270000UL, 0x0000000000010102UL,
  0x00ffff973c0c0043UL, 0x0080216100000000UL, 0x0000004040007c00UL, 0x10100101400200e3UL,
  0x10b7400000001100UL, 0x027f000000280280UL, 0x001f104000270000UL, 0x00000000400a7c00UL,
  0x00ffff97400c0043UL, 0x0080218100000000UL, 0x0000004044007c00UL, 0x10100101440200e3UL,
  0x10b7400000001100UL, 0x027f000000280280UL, 0x002f204000270000UL, 0x00000000440a7c00UL,
  0x00ffff97440c0043UL, 0x008021a100000000UL, 0x0000004048007c00UL, 0x10100101480200e3UL,
  0x10a3430000001100UL, 0x027f000000280280UL, 0x003f304000270000UL, 0x00000000480a7c00UL,
  0x00ffff97480c0043UL, 0x0080226100000000UL, 0x0800000060000042UL, 0x60020123156000fcUL,
  0x0000000000098000UL, 0x000063ff0000000fUL, 0x000048bd00018fffUL, 0x070403f100000000UL,
  0x600c004300000001UL, 0x2042204200000000UL, 0x00000001600b7c00UL, 0x00df48bd61001003UL,
  0xffc948bd0000ddefUL, 0x00b148bd0000a1e3UL, 0x00f048bd0000055eUL, 0x01c248bd0000cee6UL,
  0x018e48bd0000ec2bUL, 0x013f48bd0000407cUL, 0x017d48bd0000b9b3UL, 0x01d548bd00004f85UL,
  0x013e48bd00008878UL, 0x02a248bd0000208dUL, 0x019248bd00003fb8UL, 0x011648bd0000d55fUL,
  0x012a48bd00004723UL, 0x001a48bd000085adUL, 0x019748bd00009c08UL, 0x02a948bd0000e98dUL,
  0x01ce48bd00005a29UL, 0x01f648bd000049aaUL, 0x01a048bd0000f432UL, 0x007d48bd0000a63aUL,
  0x020448bd0000a0ffUL, 0x01da48bd00002163UL, 0x014e48bd0000938dUL, 0x025548bd0000daf6UL,
  0x021e48bd00004900UL, 0x008c48bd0000970fUL, 0x018048bd00001583UL, 0x007e48bd00000286UL,
  0x01de48bd00000e1aUL, 0x022b48bd0000606aUL, 0x00c448bd0000b211UL, 0x00f048bd00009726UL,
  0x011d48bd0000b3a0UL, 0x01c748bd00000fbeUL, 0xff2248bd0000c0b4UL, 0xffb748bd0000eb40UL,
  0x00ba48bd00003c24UL, 0xff1048bd0000383dUL, 0x00d848bd00004ef3UL, 0x027d48bd00001fd8UL,
  0x00a848bd0000a1b4UL, 0x00d548bd0000acb5UL, 0x026748bd0000ac7cUL, 0x012048bd00008146UL,
  0x004d48bd0000d383UL, 0x015648bd0000934bUL, 0x021948bd0000c684UL, 0x012b48bd0000433aUL,
  0x010148bd0000fa74UL, 0x00d748bd0000adaeUL, 0x01a448bd000060e8UL, 0x01c748bd0000e949UL,
  0x00cb48bd0000ae85UL, 0x001048bd0000841fUL, 0x017248bd0000e9dfUL, 0x014348bd0000837fUL,
  0xffc748bd0000e17cUL, 0x018b48bd000040b6UL, 0x00c348bd000056edUL, 0x022f48bd0000aac1UL,
  0xff4748bd00009a34UL, 0x012748bd0000b6bdUL, 0x027548bd00006590UL, 0x0080220100006450UL,
  0x0174104c54007c00UL, 0x00087f8054020043UL, 0x550000430090324fUL, 0x000000c200000040UL,
  0xfc2effdd56000283UL, 0xfc7cfff40000dfd3UL, 0x008902220000dfb9UL, 0xfa0004000000dfe6UL,
  0x000003330000e0afUL, 0x13bc016c0000df4cUL, 0x2a2f00000000d87fUL, 0x46c6fea50000cd4cUL,
  0x280000000000ba5fUL, 0x46effeef0000d040UL, 0x008020610000b43aUL, 0x0008c00020007c00UL,
  0x342e000020020123UL, 0x0080001000280028UL, 0x0000004000001400UL, 0x0000000000000002UL,
  0x0010000000000024UL, 0x00000006200c0042UL, 0x200d004300000007UL, 0x3431203f00000008UL,
  0x0000000020110043UL, 0x008020e100000000UL, 0x0008c18430007c00UL, 0x71f483d030020043UL,
  0x300500c300002000UL, 0x0000000000000000UL, 0x0000000000000000UL, 0x0010000000000024UL,
  0x00000006300c0042UL, 0x300d004300000007UL, 0x71f4a40f00000001UL, 0x0000000030110043UL,
  0x008020a100000008UL, 0x0088c10028007c00UL, 0x3431200028020043UL, 0x280500c300006400UL,
  0x0000000000000000UL, 0x0000000000000000UL, 0x0010000000000024UL, 0x00000006280c0042UL,
  0x280d004300000007UL, 0x3431e83f00000008UL, 0x0000000028110043UL, 0x0080204100000000UL,
  0x0008c0001c007c00UL, 0x342e00101c020123UL, 0x0080001000280028UL, 0x0000004000001400UL,
  0x0000000000000002UL, 0x0010000000000024UL, 0x000000061c0c0042UL, 0x1c0d004300000007UL,
  0x3431203f00000008UL, 0x000000001c110043UL, 0x0080200100000000UL, 0x0008c00014007c00UL,
  0x342e002014020123UL, 0x0080001000280028UL, 0x0000004000001400UL, 0x0000000000000002UL,
  0x0010000000000024UL, 0x00000006140c0042UL, 0x140d004300000007UL, 0x3431203f00000008UL,
  0x0000000014110043UL, 0x008020c100000000UL, 0x0008c0002c007c00UL, 0x342e00302c020123UL,
  0x0080001000280028UL, 0x0000004000001400UL, 0x0000000000000002UL, 0x0010000000000024UL,
  0x000000062c0c0042UL, 0x2c0d004300000007UL, 0x3431203f00000008UL, 0x000000002c110043UL,
  0x0080210100000000UL, 0x0088010834007c00UL, 0x3431200034020043UL, 0x340500c300006400UL,
  0x0000000000000000UL, 0x0000000000000000UL, 0x0010000000000024UL, 0x00000006340c0042UL,
  0x340d004300000007UL, 0x3431e83f00000008UL, 0x0000000034110043UL, 0x0080202100000000UL,
  0x0008000818007c00UL, 0x3432b00018020123UL, 0x0040001000280028UL, 0x0000001000000a00UL,
  0x0001900000000004UL, 0x0010000000000024UL, 0x00000006180c0042UL, 0x180d004300000007UL,
  0x3434403f00000004UL, 0x0000000018110043UL, 0x10037c0000000000UL, 0x100a7c0000000021UL,
  0x100c01830000001bUL, 0x0000000f00000007UL, 0x000000050000000bUL, 0x000000150000000fUL,
  0x0000000f00000001UL, 0x0000000d00000017UL, 0x000000190000000fUL, 0x00000027101c7c00UL,
  0x011b011a10207c00UL, 0x0000000110007c00UL, 0x3400200118002001UL, 0x000003513c007c00UL,
  0x0000004140007c00UL, 0x0000004144007c00UL, 0x0000004148007c00UL, 0x6000200154002001UL,
  0x1c00200114002001UL, 0x2800200120002001UL, 0x300020012c002001UL, 0x0000006418007fe4UL,
  0x34007fe400000000UL, 0x0000000000000064UL, 0x0000000210007c00UL, 0x0000006410000424UL,
  0x10007c0000000000UL, 0x10007bc440000000UL, 0x0000000000000064UL, 0x0000000010037c00UL,
  0x00000000100a7c00UL, 0x00000000100c0183UL, 0x0000000000000000UL, 0x0000000000000000UL,
  0x0000000000000000UL, 0x0000000000000000UL, 0x0000000000000000UL, 0x101c7c0000000000UL,
  0x10207c0000000000UL, 0x18007c0000000000UL, 0x1800042400000002UL, 0x0000000000000064UL,
  0x4000000018007c00UL, 0x0000006418007bc4UL, 0x0080002100000000UL, 0x0000000234007c00UL,
  0x0000006434000424UL, 0x34007c0000000000UL, 0x34007bc440000000UL, 0x0000000000000064UL,
  0x3c007c0000800101UL, 0x3c00042400000002UL, 0x0000000000000064UL, 0x400000003c007c00UL,
  0x000000643c007bc4UL, 0x0080014100000000UL, 0x0000000240007c00UL, 0x0000006440000424UL,
  0x40007c0000000000UL, 0x40007bc440000000UL, 0x0000000000000064UL, 0x44007c0000800161UL,
  0x4400042400000002UL, 0x0000000000000064UL, 0x4000000044007c00UL, 0x0000006444007bc4UL,
  0x0080018100000000UL, 0x0000000248007c00UL, 0x0000006448000424UL, 0x48007c0000000000UL,
  0x48007bc440000000UL, 0x0000000000000064UL, 0x54007c00008001a1UL, 0x5400042400881082UL,
  0x0000000000000064UL, 0x4088108054007c00UL, 0x0000006454007bc4UL, 0x0080020100000000UL,
  0x0800000260007c00UL, 0x0000006460000424UL, 0x60007c0000000000UL, 0x60007bc448000000UL,
  0x0000000000000064UL, 0x14007c0000800261UL, 0x1400042400000002UL, 0x0000000000000064UL,
  0x4000000014007c00UL, 0x0000006414007bc4UL, 0x0080000100000000UL, 0x000000021c007c00UL,
  0x000000641c000424UL, 0x1c007c0000000000UL, 0x1c007bc440000000UL, 0x0000000000000064UL,
  0x20007c0000800041UL, 0x2000042400000002UL, 0x0000000000000064UL, 0x4000000020007c00UL,
  0x0000006420007bc4UL, 0x0080006100000000UL, 0x0000000228007c00UL, 0x0000006428000424UL,
  0x28007c0000000000UL, 0x28007bc440000000UL, 0x0000000000000064UL, 0x2c007c00008000a1UL,
  0x2c00042400000002UL, 0x0000000000000064UL, 0x400000002c007c00UL, 0x000000642c007bc4UL,
  0x008000c100000000UL, 0x0000000230007c00UL, 0x0000006430000424UL, 0x30007c0000000000UL,
  0x30007bc440000000UL, 0x0000000000000064UL, 0x0000037d008000e1UL, 0x3c007c0000802141UL,
  0x3c02012300000350UL, 0x0000221104080303UL, 0x0028014010b74004UL, 0x00270000013f0000UL,
  0x0001010200030010UL, 0x3c0c004300000000UL, 0x0000000000ffff8dUL, 0x40007c0000802161UL,
  0x400200e300000040UL, 0x0000221104080303UL, 0x0028014010b74000UL, 0x00270000013f0000UL,
  0x400a7c0000070410UL, 0x400c004300000000UL, 0x0000000000ffff8dUL, 0x44007c0000802181UL,
  0x440200e300000040UL, 0x0000221104080303UL, 0x0028014010b74000UL, 0x00270000013f0000UL,
  0x440a7c00000b0810UL, 0x440c004300000000UL, 0x0000000000ffff8dUL, 0x48007c00008021a1UL,
  0x480200e300000040UL, 0x0000221104080303UL, 0x0028014010a34400UL, 0x00270000013f0000UL,
  0x480a7c00000f0c10UL, 0x480c004300000000UL, 0x0000000000ffff8dUL, 0x6400004200802281UL,
  0x156000fc08000000UL, 0x0009800064020123UL, 0x0000000300000000UL, 0x0000c7ff0000063fUL,
  0x0000000000004839UL, 0x00000001060403fdUL, 0x00000000640c0043UL, 0x640b7c0020422042UL,
  0x6500200300000001UL, 0x000096f201c24839UL, 0x00009c0001254839UL, 0x00002e5c01084839UL,
  0x0000804201134839UL, 0x0000e94f00b94839UL, 0x00007f9000c24839UL, 0x00006b9b00f54839UL,
  0x0000408101944839UL, 0x0000b53801904839UL, 0x00000dae02424839UL, 0x0000175002074839UL,
  0x0000f10c00b84839UL, 0x0000dfbd01564839UL, 0x0000aecf01ca4839UL, 0x0000070e013a4839UL,
  0x0000133f00de4839UL, 0x0000170c00714839UL, 0x0000f8eb01824839UL, 0x00009dd8009e4839UL,
  0x0000a50d01484839UL, 0x0000fcb6010e4839UL, 0x0000a46201284839UL, 0x00008a9d014c4839UL,
  0x00007c5500bc4839UL, 0x0000047101074839UL, 0x0000674101ea4839UL, 0x00004c2101ab4839UL,
  0x0000e77a01554839UL, 0x00000d9c01d94839UL, 0x0000a00702164839UL, 0x0000087b02064839UL,
  0x000034e901a74839UL, 0x0000339b01914839UL, 0x0000fae001a34839UL, 0x00000e0300714839UL,
  0x000006f600ae4839UL, 0x0000740701304839UL, 0x00007e6a019a4839UL, 0x00000fa4026a4839UL,
  0x0000e57000b64839UL, 0x000001ed01674839UL, 0x0000957a00b74839UL, 0x000089e700e64839UL,
  0x0000241b01694839UL, 0x000060cf01f34839UL, 0x00007fb101864839UL, 0x0000b85000cb4839UL,
  0x0000564d00d34839UL, 0x0000fb78015a4839UL, 0x0000b90a01464839UL, 0x0000a4fa00d84839UL,
  0x0000aa08003b4839UL, 0x0000481d00cf4839UL, 0x000086b9012d4839UL, 0x00006c4301074839UL,
  0x00002bd401534839UL, 0x000077f401874839UL, 0x000020c000a64839UL, 0x00008b6202064839UL,
  0x0000bed201244839UL, 0x0000700d00934839UL, 0x0000669701d14839UL, 0x0000032400f84839UL,
  0x0000b49101854839UL, 0x0000466502134839UL, 0x0000585001484839UL, 0x0000ebf2010f4839UL,
  0x0000051f013c4839UL, 0x00005630002b4839UL, 0x00002c29ff824839UL, 0x000095a001974839UL,
  0x00002f3602404839UL, 0x0000d596024a4839UL, 0x0000dc8001424839UL, 0x0000995500a54839UL,
  0x0000407a016a4839UL, 0x0000def200724839UL, 0x00005e3a01ea4839UL, 0x0000375e00ec4839UL,
  0x0000073001fe4839UL, 0x0000e39401284839UL, 0x00008b4701654839UL, 0x000000a301664839UL,
  0x0000755901624839UL, 0x00001876012f4839UL, 0x00006eff01f04839UL, 0x0000df39fe464839UL,
  0x0000294c019e4839UL, 0x00004c0d01344839UL, 0x00004577006b4839UL, 0x0000ffec00ff4839UL,
  0x0000cf0901b24839UL, 0x000064a301b04839UL, 0x00007d0b01224839UL, 0x0000837700f64839UL,
  0x00008936009c4839UL, 0x000060be018a4839UL, 0x00002cf900744839UL, 0x0000a66b01c04839UL,
  0x0000a86f023c4839UL, 0x0000f44500b74839UL, 0x00007382fe194839UL, 0x000084c000f04839UL,
  0x0000e92efff54839UL, 0x0000742d02104839UL, 0x00003fe501c84839UL, 0x00003e9301964839UL,
  0x000059a9019d4839UL, 0x0000442c00634839UL, 0x0000e1ac01544839UL, 0x0000e8c201484839UL,
  0x000041d201b84839UL, 0x0000bc4a016f4839UL, 0x0000b85500e74839UL, 0x0000b8f800dd4839UL,
  0x000046b300114839UL, 0x00002d1001004839UL, 0x00001c4800e54839UL, 0x00003be7010f4839UL,
  0x00001b2301c44839UL, 0x00008aa101614839UL, 0x0000819001294839UL, 0x0000bd42ff8d4839UL,
  0x0000f35902df4839UL, 0x0000878c023b4839UL, 0x0000f4eb00bb4839UL, 0x0000805b01a64839UL,
  0x0000b08c00a24839UL, 0x58007c0000802221UL, 0x580200430174104cUL, 0x0210628f00087f80UL,
  0x0000000059000203UL, 0x0000000200000001UL, 0x0000004400000003UL, 0x000000ce000000c6UL,
  0x0000001700000016UL, 0x0000005900000018UL, 0x000000a3000000dbUL, 0x0000002900000067UL,
  0x5a000c83000000eaUL, 0x0000f20000000000UL, 0x0000f20000000000UL, 0x0000f20000000000UL,
  0x0000f5e5020400ffUL, 0x0000f1e000000000UL, 0x0000f7d5042e02d8UL, 0x0000f1c000000000UL,
  0x0000f1c000000000UL, 0x0000ec40fe000000UL, 0x0000f1a000000000UL, 0x0000f1a000000000UL,
  0x0000ece0fe000000UL, 0x0000f18000000000UL, 0x0000f18000000000UL, 0x0000f56002000000UL,
  0x0000f18000000000UL, 0x0000f16000000000UL, 0x0000f16000000000UL, 0x0000f14000000000UL,
  0x0000f14000000000UL, 0x0000eec0fe000000UL, 0x0000f12000000000UL, 0x0000f084ff40ff33UL,
  0x0000f08aff4500eaUL, 0x0000f078ff16019eUL, 0x0000ed3c01800000UL, 0x0000ee18ffd50222UL,
  0x0000e66004000000UL, 0x0000eca002000000UL, 0x0000e64004000000UL, 0x0000e64004000000UL,
  0x0000e66004000000UL, 0x0000df2006000000UL, 0x0000df0006000000UL, 0x0000dee006000000UL,
  0x0000dec006000000UL, 0x000077ccc0002000UL, 0x0000dec006000000UL, 0x0000dec006000000UL,
  0x0000eaa500f70222UL, 0x0000f39dfe5b02d8UL, 0x0000dc5406800000UL, 0x0000dfe006000000UL,
  0x0000dfe006000000UL, 0x0000d16008000000UL, 0x0000e00006000000UL, 0x0000e00006000000UL,
  0x0000e00006000000UL, 0x0000d08008000000UL, 0x0000e02006000000UL, 0x28007c00008020a1UL,
  0x280201230008c000UL, 0x002800283432b000UL, 0x00000a0000400008UL, 0x0000000200000020UL,
  0x0000002400000000UL, 0x280c004200100000UL, 0x0000000700000006UL, 0x00000040280d0043UL,
  0x281100433434403fUL, 0x0000000000000000UL, 0x24007c0000802081UL, 0x240200430008c184UL,
  0x0001200071de4800UL, 0x00000000240500c3UL, 0x0000000000000000UL, 0x0000002400000000UL,
  0x240c004200100000UL, 0x0000000700000006UL, 0x00000001240d0043UL, 0x2411004371df683fUL,
  0x0000000800000000UL, 0x30007c00008020e1UL, 0x300200430088c100UL, 0x0000064034347200UL,
  0x00000000300500c3UL, 0x0000000000000000UL, 0x0000002400000000UL, 0x300c004201900000UL,
  0x0000000700000006UL, 0x00000040300d0043UL, 0x3011004334347ebfUL, 0x0000000000000000UL,
  0x20007c0000802061UL, 0x200201230008c000UL, 0x002800283432b008UL, 0x00000a0000400008UL,
  0x0000000200000020UL, 0x0000002400000000UL, 0x200c004200100000UL, 0x0000000700000006UL,
  0x00000040200d0043UL, 0x201100433434403fUL, 0x0000000000000000UL, 0x1c007c0000802041UL,
  0x1c0201230008c000UL, 0x002800283432b010UL, 0x00000a0000400008UL, 0x0000000200000020UL,
  0x0000002400000000UL, 0x1c0c004200100000UL, 0x0000000700000006UL, 0x000000401c0d0043UL,
  0x1c1100433434403fUL, 0x0000000000000000UL, 0x38007c0000802121UL, 0x380201230008c000UL,
  0x002800283432b018UL, 0x00000a0000400008UL, 0x0000000200000020UL, 0x0000002400000000UL,
  0x380c004200100000UL, 0x0000000700000006UL, 0x00000040380d0043UL, 0x381100433434403fUL,
  0x0000000000000000UL, 0x18007c0000802021UL, 0x1802004300880108UL, 0x0000064034347200UL,
  0x00000000180500c3UL, 0x0000000000000000UL, 0x0000002400000000UL, 0x180c004200100000UL,
  0x0000000700000006UL, 0x00000040180d0043UL, 0x1811004334347ebfUL, 0x0000000000000000UL,
  0x14007c0000802001UL, 0x1402012300080008UL, 0x001400143431e800UL, 0x00000a0000800004UL,
  0x0000002000000004UL, 0x000000240000c800UL, 0x140c004200100000UL, 0x0000000700000006UL,
  0x00000020140d0043UL, 0x141100433432b03fUL, 0x0000000000000000UL, 0x0000002310020043UL,
  0x100c01830000001bUL, 0x000000090000000bUL, 0x000000070000000fUL, 0x0000001500000009UL,
  0x0000000900000005UL, 0x0000001300000017UL, 0x0000001900000009UL, 0x00000029101d7c00UL,
  0x011b011a10227c00UL, 0x0000000110007c00UL, 0x1800200114002001UL, 0x000003513c007c00UL,
  0x0000004140007c00UL, 0x0000004144007c00UL, 0x0000004148007c00UL, 0x6400200158002001UL,
  0x200020011c002001UL, 0x2800200124002001UL, 0x3800200130002001UL, 0x0000006414007fe4UL,
  0x18007fe400000000UL, 0x0000000000000064UL, 0x0000000210007c00UL, 0x0000006410000424UL,
  0x10007c0000000000UL, 0x10007bc440000000UL, 0x0000000000000064UL, 0x0000000010020043UL,
